node {
  name: "Placeholder"
  op: "Placeholder"
  attr {
    key: "dtype"
    value {
      type: DT_INT32
    }
  }
  attr {
    key: "shape"
    value {
      shape {
        dim {
          size: -1
        }
        dim {
          size: 18
        }
      }
    }
  }
}
node {
  name: "Placeholder_1"
  op: "Placeholder"
  attr {
    key: "dtype"
    value {
      type: DT_INT32
    }
  }
  attr {
    key: "shape"
    value {
      shape {
        dim {
          size: -1
        }
        dim {
          size: 18
        }
      }
    }
  }
}
node {
  name: "Placeholder_2"
  op: "Placeholder"
  attr {
    key: "dtype"
    value {
      type: DT_INT32
    }
  }
  attr {
    key: "shape"
    value {
      shape {
        dim {
          size: -1
        }
        dim {
          size: 12
        }
      }
    }
  }
}
node {
  name: "Placeholder_3"
  op: "Placeholder"
  attr {
    key: "dtype"
    value {
      type: DT_FLOAT
    }
  }
  attr {
    key: "shape"
    value {
      shape {
        dim {
          size: -1
        }
        dim {
          size: 83
        }
      }
    }
  }
}
node {
  name: "Placeholder_4"
  op: "Placeholder"
  attr {
    key: "dtype"
    value {
      type: DT_FLOAT
    }
  }
  attr {
    key: "shape"
    value {
      shape {
      }
    }
  }
}
node {
  name: "Variable/initial_value"
  op: "Const"
  attr {
    key: "dtype"
    value {
      type: DT_FLOAT
    }
  }
  attr {
    key: "value"
    value {
      tensor {
        dtype: DT_FLOAT
        tensor_shape {
          dim {
            size: 4003
          }
          dim {
            size: 50
          }
        }
        tensor_content: "\254\314#?\215\352\221\277\022\234I\277\270\340\017\276\021\330\263\277\235\242L?\020\365U\275QM\367?\356\203\212\277\235#\031\277(\317v\276\224W#?\275\216\327\277\253;s\277\223\376\215\277\257\203]\275t\245\250?\254\014\302\277\271\355\"?`\037\234\277Cr\307\277\320\315\'@\207\005\253?\310U\006\300E\334N=5,\326\277\020\332\317>\377\306\017\300\242R~\300\205\372\377?\370\304\003>\3506U@\246i%@\027O\007\300\2631\212>\272*\231>\216\253\037?\003v$\300\353{\274\275\365\374\242>/\014b?c6\242>E\274\247=\252>\241\276\336\366\004\277\360\217\362\277\233\361\374\276K\270\265\277\307.\314\276\321\030\322?\033oh=\\\326\255=I\035\233\276\253\347\032>\311\2432\277-M\240=\241\0325\276\352v\336>f\331\177\276\342\314\260\275\035\374\021?\214z?\275\301\301\242\276\214\254P>#\266P\274\235\006\251>g\251\314\276v\330\347>\273\270q\276\221\356->M\252\331>\347f\266>\325\246\034?\n\007\205\276%\r\351\274w\215\254\276\275<\017>\231J\255\276\330\317\364\274\314\253\277\276h\320&\276\nC\023\276\326\311\217>\007\002\233=\0064\024\277\250\030\276=\005\r\321>\257m\205\276\013\352\212\276\332=\375=\260B\035\277\341\322#?_U\014>\311\336\202\276\246i >bvF>Za\247<\234\016\212\275\314X@\276\030\374\014?Do\224>I\204\261\277\363\304\211\277\343\2777\277~fk\277M\300\234\277x\377\252>\315H8?\352\034\027?\277fc\276\320\000\331>TK^?k\333\312\276\334\014\212?\337\237\\?\310\216\324>\035\200*\276,\355R\276pB\217\275U$\212?\271\332J\276\213A >\213\237Z?+\360\215>\021Z9\277\215 i?\342\013\205\276%J\221>8\312x?t\017\353\276\231\023\031?l\355J\276\3645\305\276\327#\277\276\227YM\276\303\252\002\277I\371\313<\362\306\250>3\210\010\300\370\335\212\277\002\017]?\345\270\276\277<\236:?\315\222I\276j\312\t?\337,\246=\334W8?\326Br\276\313\r\357?\017\250\200?\002;/@FGX\300\025\324\302\277CU\323\277\3042\371\277\373\302<\300\264}3@\014\247\021@\315\001\247\275\212;\271\277\226N\030\276dsH@\351\262#\277!8\310?\333\261h@\013>\305\276\253\027\334>\330\325\360\274R\211\233\276\362T\">R\0308?\t\020\222\276\003\013\025\277\251!x?<\345\013>\364+\363?\010\3644\277\265)h\277\326S\276?\255\203\315\277\310\005\217?\355\330F\277t1\235\277\363\344\245\277T\220\374=\317f<\276\025\327\267\277\302v\202?\246\2535\300\303\217#\300M\024*@1\322x\300F\200\277?\354\3170\275\nU\002@\306a\234?\302:\213?u\343\206\277d\373\201@\321\356\345?\301\251o?\345\345<\300\0010S?$\246\334?\275\267-\300\026\2270\300\\\370\351?\300\373j?\334\310\333?\322F\210?%\317\371?~{\257\277\372\0343?\0343V@\007V\272>\205d\224?\006x\007@\260jK@\t\3362?l<U@1\200\\\300\240\034\334?X\237\242?\343?\016@\276\t\276\277\211e\346?\301%\201\277}\016l?\204n\327>\317$\031\277\275\265\005@m\322 ?\257\272q?\030\377\013@A8\026@U\227\264?\016\275\334\277wo\000\277\321N\260\277\217\330\334\277,\2360@[\300\204\300e\226\030@\320\235t\277\300\210\206>\005X\372>\217\216\270?\264\013/@\0135\242@;\225\217?\320\204?\276V\253\374\275\357\021\014?\021\335\t\300\353p~>4\\\002\300B\337\274\276\372\010\301\275\0345\007@\001\205\233\277\024\034\r?+t\225\277\373\275\021?\315(\372\2775\344o?B\013\031\300\362\311\243\276 \244\002@%K\343?\016>c\276\033\235??Hy$?\302\330\334?\375M\241\277\037\013V\277Iw9?B\'\360??U,\2771\265\366>:\303\376?\r\322<?\021\217\211?\226T\006\300%\\I?sK\017\277y*\335\277\361\223 @\363\022\332\277\227mF?h4M\300z\213\374>\342/\316\277qJ\004@T\221o\300\375\247]?\327\201\213\277\347(1?U4\255\276\257\204\337?\214j\222?\370\372\324\276g\026\362\275\007O\346\276\221Q\r\277\002\204\t\276\364~\243?\352%I\277:\021\346\274\314\265\022?O\205\033>\314\221\252>`O\201\277\314\364\026>T)}>v\204\274>\361\334e?kIi>\t\363\274>?\036\331\2769\307\003?r\316\325>#\024}\277\341\340\361?^\220\344\273\0043E?_\316\216\277\233P\233\276\235\302\003?\314\224\306>\025\223u\277\271\205\002?\303\266\322\276>\363\354>\270\242\326>\220W\321\276\261\250C<\337\332M?\245!m\275.;\250?\231\335\323<no\335>\033 \224?r<\215>\306\316\350>\032\362g<n}\302>#\240!?\242\322w\276n|\022\277\322\261,?\205\267X\277>\010v@<\232 \277\361\326\242>\342S\000\300%\rQ\300\213\207\014?h\243*\277\205I\024\300\253\353\025\300\200\327\254?\035\351\205?Q\346\216\277r\365\257\277\3426\340\276M\2723>\t\022\374?7\261&>\200dh\300\n\255\330\275\003\002\231?r\265D?\360o\274\277\217\033\006\277\261)\017\277Jb_\300\323\200\036?\233d\360\276T\231\274<xX\000\300\354\212v>\244&]>\360\226y?\3114\375?\225\341\267\277%*\215\277Zg,?\202\014\247\277\327\203\336\277\177/\214\277<I\277\276N}\230?_\035\303\276\372\305M\277\232\306\374\277\376\232\257?\243\225??R8\352\277\227\320\272?\374\\\237\277D\212\r?R7\215>\024\232\375=\274gr?;\006L\277\237\245<?\031\376f<+\267J?\320\322t\276\371\007Z\274&\030\273?\320\022m\276A\204\362\276\362k\013?\374\245\236>\330\005z?P\342\016\277\345\200\201>\255d\337\276\312\300\377>\2667h?\3735];\216N\027>\270\353Z\276\372\024\211>)\250\204\277Kp\023>\333S\006\277`\222\233>\2473%\277\377\375\221\2763\223\353\276\265\354Y?\241v#?0\247\203\277P\341@?9\312\265\275\256bf\276\236\225\353\276~\336N?\232\3471\277,\236\022?\006\262\034\277\236\2121\277H*9?\261\316\241\276\\\330\027>\3647c\276\230\035\227\277\333\303\202>\205W2?\235\311\">\230\032\233>\321\216\240?\220\001\201\277\256\013\234?\371\3719>S\307\\?\242`\016\277\210\324\377\276uY\325?\000\215[=\200\205~\277\3540\224>\233\336\t>\376r\211?\031\350-\277\000\330\177>\001Q<\277p\364\\?\000\\\212?)\213\030>\351\276\332;\224T\021\274d\341D>\277\302\240\277e\360>\274\263\326\301\276\221\302J>\366Vd\277\310\213b\276\263\356\231\276[3a?\330\207\222?\255\203\244\277\305\rF?\322V\214\276\360\202\300\275\234\370.\277JDG?\022\202\215\277\323\0017?7\236\225\277\031FC\277h\013\201?\253\226:\277\222\235\251>cI!\276\324\204\001\300\312\n[\276\377\262\240>\032l\001?\222b\356\275\321\221J?*u\253\277\350\005x?\016\206\212\275\226\315q?\302\025N\276\010\216\035>\'\266\272?\r\322\t>R!I\277\254\353S?C\363,=\2000\202?erj\277\304\304\315>y\331d\276\347\001,?J\342\253?\346\253\302>\376\243)?\000\347T\2775\224F\275r\256\202\277_\352\">G\343\213\277\203\003\237>tl%\276p@U\277\251\211E\277\356r@?oZ%?_\007\221\277\353(f?\317\'\261>\332\320\025\277\312\341#\277[. ?\266\341\236\2773\320\213?xq\n\277#\006\213\277;v2?\304\226\252=\001\343B\276\242\003&\277\340\002\215\277dIe?\231\367u>\332*\225?\213\316$?\322\317\330?a\2674\300\313\313\336?\021\016+?\315\247\217?\332\227\243\276\332^\036\276R<\252?\307\363\217>\356(\342\276\351\236\252?\002\264e\2768`\005@S\333\030>\317\246\331>q\272%\277V\312\250?\262\361\353?\0205i\276s@w?:\362\242>\306^R??\267\005\300\254\213g=O\262\332\276\303\311\346\2754\216\024\2761\210b\277\205\371\246\277V\262\221?\320a\253?D\206\241\277kt\275?\035l\301>\207(\013\277\005\313_\277\205u\213?\371?\310\277:_\004@\306-7>\241\204\326\277\264l7?^:\215?\303e\335\276s\217\220\277\345c\001\300A0\271?~\352\007?\262a\221?\304\034N?X\272J?N\331\022@\021\374\274\276\"8\324?\216i\177?\n\205\035?I\022\243>\020&N\277\265\3025\277\272~\002\300\314\310\226\277\254\310\277>\235\027]?\257\"\225\277P\231i?\226\212+\2765\357\266?\260\257=?\266\030\211?\221/\310\276\214\237\335\277\322Hg?\301\201\234?\363\317\337>$\230\262\275\027\303\214\277\361\315\271?\265A\005@\251v\337\276gV+>@\021H?\262\263#\277\354\013\223\276G\231\265?\03337\277\260\030\271\277}\360c\277\271/m?\210h\'?\333\223B?\253\001\037@0\274J=0|l\276\244\272\246>K\220\240\277\350\346\326;\001N\372\276=r\021\275\000pw?[\326\037\277@\203\263>\317O\277\277\335\342F?\346\352>?\266*o?\230\216\036\2756v\036?4\023\"@j\311+\277\005\004&\2773\244\316?\203+\367>(\030\370?k\306g=37\252\277>g\307>\250X\t>\031\276\305?H\336\003?\030\305=?\305\352\311\276tY\267?*V\271\277\334\214r\274\230I \277D\273\217\276\354\377\326\276\023\221\034\277\362/h\277Iax?\017t\245\275\310\337s=\365\275\207?k\212#?\264\"\332=\342%!>\275\003\024@h\214\230\277\314U\335>\257p,\277\013V\303\27762\203?r<\237>\353}p\277:\243\215\277P4\235\277.\266\325=\367\356r\277\374\230\006@\246%j\277\352\364\255\276\321\372\267>A\330\016\300\344e\311>_\335,?\333v\344?\237\006P\277\354\033\006?\345\370\343?\340\255\305\275\342S\200>\026#\256?){\344\276\023h\256\276\004\202\247\275\340\r\356\276\344\"\265<\2062d?\234~\236\277\356x\271\277n\262\214?\260\2539\277\032\276z\277\022\331C?\245\324\314\277\307\031v?\271%\277=\026\373t\277V\'$@\023U\330?\357G\275>p\032w\276\302\017\002>\0309\200\277a?\260\277\230\351[?\0162Z\276\014\177\245\274\364\245V?\004\366\023=\233.>\277\253\236\347\276\303\215~\276\223\323i?m\t\374>\302\023\332?5p\267?\235os=q\036\307=\364?\327\275\330\325\243\274\356\013\254\276\003S\021\276\261\344\335\275\274\371\245>\271\362E>3\343\226\274>\021\246>\331\360J\274k\326}\276\241\006\276>\020\007=<\247?i\274?\353\327\276\211\365\207>\302\245\223\2752v\216<\214@u=\316\372\021?\3115\264>\264\312\321=\357Q]\276\t\307\241>\377}\022\276\340i\226>s\243\030\276t\355\304<.\361E\274\272t6=e\002\203\275 h\250=\222)\351<\351\'\300\275\337\325\222>\351E\240<\244\245\324=\332N\270\276x0\201=\036\"F\275fK\034>w\314\213=N\003I<V\327\200\276=J\244>\235B\310=JB\220>>\272S>$d\244\277O\347\214?\227w\213\276\201\246\225\276>\312\357\276\302\301z=00\272\2751\310F?\232\243\226=n\243\236>\247*\323>\273R\244\276\251\373\177\277A\366\214\276\331$R>g\303\264?4K\361\277g\237\276\277B\260\354\274\305h\354>\201\234\236?Y\365\250\275j{\007\275\327*\277?\"\375\203;\226\317K>\254\2512?\2351-\300\374\346\177?\301\023\203\277)-2\300\344|W\277\3576\321\276\006\374\\?\036@\253>\323\233\255>C>9\276\204-\277\275\003\'\202\277\376\217\327\274.3\345?\031V\354\276\014\377\244\276\010\221\311\274\330\375\240\277\341\367\223?\227\352\274?a\022O?\323\307\356?M\207\361?I#S\276\305\374\276?\024\242\205>\234.\227><\245\235\277\350^\345>\2566\267\276\271\321\021?\262\246\342\276\350\353F\276\016u6=\022\314\000?\215\n\204\277}\200\305\274K\022\004\277\177\217-?\352p\035?\"\207n>\331\220T\277\'\3246>\336]H?\214\206\371>\352\205\236>\'K%\276\216\245\020?\000\317\231\277\001^\275=\332\335$<c3\344\276\021J?\277\304\376\023\277\"\230+\277\036\364\333>w\216e?\221w$\277\351\2653>\375T\\?\006\341\004\276ii\004>\276\tF\276\322g\210\276#\321\022@vp6\276\004\310\023?\220\004\235\276\353\304\337\276\363>\210>\207\215r\277\307\026\314\277.\177\025>\216Jo\277CS%\277\002\347*\300\223\031\320>\326G\247\277\216-\235>}\305\354\277\270\250\225?%\324\002@\276\271g\277p\222\212@\320W\200\277\203JW\277=Z\246\277$\022\345=\3066\026\277\361 \266\277\006mh\277\016E\344\276(]\322\276\032r\212?\306\354\355\275\333\202\252?\014\376e\277}7\t\300\372\001:\277\365(\357>\230\243^\2770~\275?3\337\337\277\335\351+\300\264\326\232>\301\202\220>\002D\025\300\355\375\266\277\271\207\246\277W\344\201?\257\205\262>\315R\221\300s\001\275\277\237\340\013\300\312\177w\276[m\030>[\267(\277\3406\376\276RMa?;4\376\276\366\035??\347\321\014@6\205@@\230K\215>j/h>\265Kx>\022d(?\334\334\251\277\021K$?\214U\245\275\350At?u\231\255\276\202*p>\2518\301\276lK\211\276q5\300\2760Z\363=\205EC\276\267\215B?\326\211\037\276\226\365\203?$7\037\274R\227\221\276 \351I?\031\231\r\276m\377E?X\326\022>\\\232R?$\027 \277\216\316&\2769)\033\276\324\023\252>\365\026\203\276m3\000>\330M6\277pA\227?\2202\207=\3137\231\277\274`q?\326O\010?y(7>\350\351!?\200\364y>\2452\376\276L\031\374?\227\023s\276x\265\035?\000\322\374<\023\363<\276\003\3152\276\252|\037>l\t\237\277\373\307Y?\206\347\350\276\206gF\277\232\371\022\300\210\216\"\277\367uu\277\026\203\316\277\372\034\263\2765\353\312?\037o+\277\205A*?\002\357X@\253,\210\276\243\377\220\275\223O\323\277\275\233\253\276\206\204\206?m\367\204\277]\313\037\277\026\334\354<\223^\210\277\031\323+?\023y.\277\230\365\327?\366u\266\277\226\357@\300U]h?\"\026k? \203\'\300i\3646?\033\300\000\300K\207\205\277\367I\206\277\217MI?\255\001\223\277N\200M\277ri\300\277\202q\020@EJ\177?U6\216\300\344\275\223\277\2651\\\277;4:\277\261\375\342>\007\333\346\277W:\016\300,\014\322?OM\r\276\261\224\354\276O\254\315?\032\234 @\002\177\263\277\301\000x?\027\032\372\276\013\3515=\273m#;\022I\311\277\266`B\277\214^\353>U\2017@\317\256A\277\266/\231>+\0301\276P\252\265=2\305i\276\021i\325?\213E\200=9\246,\277\377\350e< 4\262\277\360W?=Q~2\277n\373\324\276\361\264-?2\270y?\204\377\234?\026\323@\276\215\275\337>\226\024b\277\255\312\n@\337\344\225\277F\322\203\274\366lW>1\273\341?\342\2643?\2103\263\2779rp\276\310\340\036\277\027eY?L\370\362\276tM~\277`\214\261>\2702*?I\000\222\276\\l\270?\005\351N?L\243B\2765\357\207\275\267\301/?\316\220+?\225n&\274\266\177\"\276R\212g>\271\207b\276\033\314\r?\302\213W\277\225wr\276\024\306\224>[\342\210>[_\"\277\271\007\247\2769c<?\335\200\245>\322\277\211>Z\036\274>XM\270=P\375\312>\215\025\020\277w6\000?T\"\243\276X\014L=\271@\266>J\007\203=\342r\243>\316\227\262=2l\021?\300ZA\277%\320b>O\242\321\276\254\201T\275\330\3426\277\262C \276\235d?\277\264\230\033>\200\023\030?\270A\202\277\367C\\>\312\2348>+9\364=\003\350\356\276R\347\325>\357>T\277\306W\227?\221a\327\276\002z\266\276E\026\\=\241%\034?!\002v>\316\254 >\035\325\233\275\301\340+?\031\301\235\273z?Q>\2005\367\2757_e\276\235\362F\277\343\030\205\276\201\331\034>\223s@?\340\333\272>\252\222\227>\203\271\224>>Q\356=\3462\275\276-[D?cP\215\276\r\240T\275\014\306v\276\247\343\271\275\324 \031\276}5\004?d\264\370\2765\026Y>w1\235>c\031\323>g\316\360\276\273]\213>\371\330Q>_\334\211>\364\371\371<\202;\345>\302\202\232>\227\260\326>\330]\322>\365b\205>\357+w>\274\215`\276\237\311\320=t\222\245>\".\270\276_[\340\275b\222C?\2415\014\276R\200\010?\360\235\206>6SG>\230\304\377\276\217`\260>\305\372m>\257\353\331<j\331\250\274\374\260\000=\257C\002\300\302\274\021\277\247i\356\276\037\203\356\277\374\270\265\277\210\242+\277j\026\240?\031\315\273?\222 \034>\254^\202?\256\233&?u\264\377>p\272\344?<y\252>\006{}\276\330\211\245>\303*\222>i\004\322=j\237\204?\021\322y\277Q\372\034?\262\314q\274\004im?\342\372,\300\007 \257?\"w\333\276\367=T>\177a\355?\370zx>V\333#?\210jm?\002\305->\177^X\276\031\302\220>\373)!\277\261<\023?\376\271\270?\271_\032\300\214]\326\277!A\243?H\000\006\300\3527\203?J\014\266\277\351\002\\?\363\237\236\276\263j\237?\337q`\276/T\246?\241\263B?\324\243v>\231\317 \277 2\340=\260\003Q>\371\360!\277\265\3436\277\335$\304\276&\021O?5\347\315=\316\334\237\276\337sE?\215/\215\276\013\024B?\231Rt?\365N\272\275\230\245\264\276\222s\017\277\205\004\037\277\236=\r\277\034\360\362=\013=\231\276e\2568?\320k[>\316\036\363>f0~\277j\337\020?J\2534>\026\322\223\276\264\325\027\2754\233\245\276\214y|\274\010 \300>r\374\032\276\326\374\362=\374\"\316\275\320\322\365=-\0030>\314\244\201?\231\267\006\277\214\001|\276\303\217\220?%\3464\277\216\245\231\2765tG\276\034V\222>\201\362\n?\357\033u?/I\274>\374\350~?\254\253@?\225\014m=\200\302\315\276\251E\345\276\377\272\025\277\035\212\210\276z\210\323\2762V\030\273G*\007?h\227\332>z\265?\276B\272\027>l?\317>9\354\217\276lK\n?uy\215>\340\227\375\270\005\314\226\276\237\202r\276\367\235\336\275\333\005\305>r\341\005=(\\\222>\0107\334>%2`=Cl\323\276\234\003\313>\321\300\204<\246\374\262=$\306\334>Wg\005\276\033\240i>NW5>\315\n\001\276\033\321$\276\351A\227\2751\372\272\276\036\373\312=\357d\224>\365\367,\277\310\'\360\276yl\010?P\346\000\277\243\363(>\206E\003=L\276\257>\272/v\276\317\'\004?\320\226W\276\377L\361>BY\264>\026\310%\275I\t\376\276e\266\355\276\375\r\031\2770K\001\277/\342\316\276\336\314p\275\031\250\030?\337\000\006?\333\307\003\275\223|\302=P\013z>\265\370j\276\027\273W?\245\2168>\340\222)>\202F\206\276/\217\001\277:\210\200\276\345\363>?zEG\276\023\344\304=\255\317\034?^\344r>(\305\005\277\211r\320>\357\254\032>Jv\014>\322\002\356>\321W\014=\341;\253>\001\265c>_{\217\275-\240?;\377V^<2\211\266\276\210-\346=Z\365\311>\206Wj\277\372\033\261\276kTK?x\023\333\2765X\177>\252\261\256<v\364\250>x\232B\276\336\017&?9s\'\276\010\211\345>4\353\275>H\200\001\275Q\220\324\276x\207\241\276\272@{\276Vx\207\276\360\206\337\276W;\200=\352]\372>B,b>\305\014\222\2766\237\000>\034\004I\275\317+>>\337\346\272>\037\347\034=\362J\234\276\372o\326\27684\233\276\305\221\324\276\223q\275>(\353\216=\336\017?>\030\331\001>\230\324Y<\221\217\005\277\200G\226>\340\224->\325\312G\275\217\266\230\275\271\265\177=\000\227z>\324\035*>!z<\275psS\275\202\220<\276\215\231\344\275\251QR\275\245)\274>\234\316\343\276\214d7\276\204\263\371>S\330\340\2765#\r\274\216z0\276w\310\217>\377~\t\276\313X\252>\"\332*>qd\255>bs\021\275\361\005\261=\2053\330\276\004\332\014\277\355\254\366\276Lj\324\276 \347\001\277\2510\214\275\023\375\345>J\361]>@\365\206\275\365m\037>\202\323\246>\355w\265\276k?\001?z\016\247>>\034\002>\211\241\026\276\240\251#\276d\340_\276\"A\341>\006\307\221<\335i\265<3\236\353>\252\220R=$\007\302\276Y\013\001?\254\302 >5\3650\275\021\215\003?\227B\017\276\003\331\246>\355\211\352=,\371\374\275\236\217\277\275\241X\177\276\336\370\234\276j\362\211=\235\306\222>F\007O\277(X\214\276\224.\005?9/\316\276\016\217->v8\253=x\023\347>4>R\276\261\343\347> \346\261\272y\324\001?kd\337>\204-E=\352\273\254\276\274\334\314\276A\355\325\276>4\243\276\232S\255\276\246\275\274=\331z\354>x*\363=\256\327\251\275Y!F>a\367\257>\021\014\315\275\034\336\367>y\254\361=EvR\275\326\0003\276F\204>\276U\264\000\276\354$\334>bY\312\274q-G>\264<\353>\320\253\316<\341J\200\276\365R\205>TU\212>\271\273w;E\224t>*&\352\273\363\341\261>\233\216\\=\340\226\363\275\347%\030=\350\267\251\275\341\360\225\276\037\025\n=\325\262\221>\205z\"\277\275\213\026\276\376j\006?\0338e\276v\270\371=;\005\264\275\0014\246>\335\016\357\274\324\276\371>\246\303\205\275\\\321\354>\001L\377>\025]J>(\036\026\277\276E\377\276\360\201\375\276\241>\322\276g\"\026\277_.\363\275\232C\356>\243\237=>\252\301\000\276i\004\207=\261=\325>p\336\233\276-| ?\224]\272>\252\221>=M\241\245\276K\263\246\276\177\261\224\2763\003\013?\310%H=\337Y\020>\214\270\347>.h!>\302\322\000\277~#>?\331\315H>\307\230i\275<\354\030?\344\010\202\276\201.\243>h*\032>\204\024\206\276k\325\021\275\205\327:\276\274\022\254\276ur\257\275\'s\275>PBX\277\037\305\272\276f\230\"?\013\226\024\277\215\2075=\256P\371=\323\237\325>\276W\355\275\030\311\031?\344\227\3378\351o\025?\276\026\255>O8\021\276;\220\005\277\237\033R\277\331M\n\277\271\201\354\276\354\004\364\276\350\330\262<=\256\001?\252\030\307>\223\337\234\274t\3766>\0023\306>\307\266\211\276\300\3564?c\334E>\337\260\251;yc\234\276\031\331\254\276\370q{\276RD\022?\211\177)\276\233\216s>\036\305\304>\212\267}>\002\257\360\276\303E\364>\334\030\212=VM\206=\206h\310>\254\003\"=h\362t>\021\365m>\323\"\363<\226\377\301\275\241\213\005<eM\315\276e\2541=\341\324\324>\362Q<\277gU\205\276X\201\030?]\213\321\276\321h\377=\343W\362=\313I\315>\237\223\247\276\305\227\352>\004\277R<\237\231\002?\235\036D>of\205=\037\276\017\276\251\313{\276\202\226\212\276ZT\217\2765~\325\276^O\372\275i\021 ?,\244\203>\346\346\000\276\252\217\252>\271NU>\346\326\222\276\242\253\030?\301.D>\372\3672=\030\273\274\2760I\307\275\2635b\275\177l\310>u\340L\276\177Z\201>\366\351\241>*\262\362=u\323\244\276\303\253\217>\025w\274=M*\004>\367\022!>\\\271%>\211\366\226>\314\353\203>\306\244\020=\2675\013>\351t\231\274\320~\003\2769J\007>K\320\003>\275/\352\276\023\307\347\275\347\320\026?\254?j\276\2303P>\016\365)<\010\373\235>\306\210,\276\277\274\370>\360Nu\274l\332\332>\273!\252>!\021\023>yl\363\276\230\277\230\276\202\342\253\276\260\017\310\276\357\030\243\276\376\324\270\275\013\002 ?\237,\320>h\023\277\275g\373S>.\253\221>~\000 \276+_??\321\005{>\250\362\356=\220-I\276\364\316\267\276\210\026\217\276\370\006\r?#v\004\276\034\3426>\'\232\306>^V\211=\346(\016\277\"\000\256>\371\013l=\205K\303=9\325\250>cV-\276\323\363\265>`\215X><\243\252\275\300?\252\275\003\277\000\275\233\276\202\276\326H\337=\365\361\245>D\255,\277\363\025X\27640;?\235,\342\276\305\251=>k\005\304;\260\024\330>\031\"\325\275\020v\372>\036\215\364\275?\314\321>\317~\250>EcJ;N\027\247\275cB\214\276\2038r\276\344\327\326\276\005\"\212\276\0249\215\274\021\342\014?\340\000T>\315\246\373\275\333\331\227>\"]\202>\223Ht\276\224\002\013?\331\327\277=\032\020\035\275x&m\276\270\220\354\2742\372\354\275w\213\244>\362\325z\275h\000\201><X\240>\362\027=<\334T\314\276\260\236\216>(\363\332=\034\250\301=b\247\303=x\346\017\275.q\237>\301\352g=\376\331H\274{\037\230=\013\327\033\276kz\357\275\311\2303>2\'\205>\177\202\324\276\016MS\276\211\263\324>\3650\021\276c\035\227=\020}Q\274d\271\261>\373\267\001\276\033\032\246>n{\366\274{B\223>N\231\253>\331A\201\275\307\215\302\2776pG\276f\226M\276\273i\n\300\216X\330\277\364\2422\277\245\334\362?\202\263\353?z\236L>\'\333\000@)\t\010\277g\346\031?O\265\r@z\371\010=\031,\311=\212\2000=\271\243\233?\247z\250>\353\377\204?m\231\003\300\334\226\275>\272`\024?\237\277\003?\264r,\300>\375n?\240\245h\277\003.\202?\343N\244?\273\307\243?d\267\266?U|g?\361\230\'?\257\354`?\365\r\362>\272\271\243>\002OU?\351\211A?\222\013\363\277\363\264\304\277l\236\374?\270\240\006\300Q\277\355?\224\232\005\300P\367\020?\276a\005\277K\006\203?\245\356\021>\262\305\342?\021\007.?\367\371\333=\021&\263\277\n\274\226>\037ww\276\324j\n\300M\327\275\277\231\261\376\276\360\345\346?\025;\343?\037\212R\275\340\267\306?\034\243\350\276a\363B?\034\231\373?\266*\251={sr\276\351\375\312>\225\375\221?1;\360;\364G\211?\210\231\222\277\273\263\364>\314\352\243>\323\303-?\322\365\004\300\367\224i?\02569\277\353?\033?#\257\230?afK?eW\261?\037\217\007?\324\246\340>\306o\004?\2120\336>VS\312>\200-M?3+S?\323n\316\277\215\006\367\277(_\375?\206\355\311\277\251\313\332?\346\314\321\277zf\023?\272\324\327\276\373B\210?\224o\302\2750\210\301?\222\327\037?\323O\213<e\373\217\277.\2423\275JN\212\276\336\005\304\277\345\237\211\277.w\357\276\022\210\256?u\340\236?=\360`\273w\265\261?\270\223\275\276\233\211\033?2]\252?\350\217\026=t\273|\2764\016\205>\225\245W?\2463H>\321\203-?0\240\207\277\272X\315>\345\302\305>\354\203\371>\271\177\307\277l\371-?u\325\341\276{\225\313>\344?8?\371\327\003?\272&\202?\217\376\353>\225\371\302>BH\321>\006\272\365=\362\246\021>\230(Q?\246_+?^g\233\277\225\030\302\277S\245\257?\226b\235\277U\264\201?\374P\242\2773\362\353>pX\016\2775\342n?w\342$\275W<\177?WO\017?\211\301\261>4\334\005\277`y\216\276Z>\236\276\372/\246\277\310d\265\277b\325\t\275\324\036\243?l\007S\275V\313\224>\206\246M??5\344>*;\256\276\372T\346?\352\266\250>}\332\036?\021,\217\277\364\261\233\277\211\351\225\276&OB?V,\303\277\342t\205<\230R\t?\246vl?\020\235\200\277\307\363\341>vi\001?\303\241S=\2430\271?b<|\274*\233\255>a\372\237?q\311?>\t\256#?M\236\333>\232l&\277\242D\350\276\275\250`?\265\367\267\277\203\'\025?\214\310\354?\265\257\016\2774\205l?\326\211\350\275\356\251\211>\346\004E?\212\221\211?\024\363\227>\264\014\240?>\256S?\177Fz>Q\371)\276 /,\274\013\372y<\235$\010\277\242\034\324\276\233\243\377\275C!Q?~\215\261\275\327 \r\276\262u\371>\323\001\265=H|\346>\374\3465?\022\361H=w:\333\276/D\221\276)\016\237\276\021\027\302\276\220\273\241=<Zf\276\263\035\305>#\007\r=f/\005>HT7\277\334[\301>}\036\311>\224\210\347\275\240\3228\267\213\365\340\275\001\366\245>a\251\260=\025\031\361\274\312\366\351=\347\030\264\275\317\335\276=\203\266\037>\362\013\"?\216\036\222\276\001\357m:\253\204s?x8\257\276?\233\177\275\370\236N\276V\032\007?\031\242\205>\362w\n?\250y\211>\3427G?\212\0232?]f\000\276\355\336\317\275\365O\245\276w\351\037\276\337\207F\277\347\207\215\276\223z\016\276\226\231\016?!}\033>\r\237\216\275\235\336\031>\357L\t=%\334\016\277\260S\267>p\003l\276\005\333B>\375\'P\276;\240>>\035\214>\275\026\367\226>Bx\003\276PO\026?\225}\263>\367\376K>\273\017\343\276\360S\237>\003n\251\276\371\034->\364\206?\276\277\017\215>\350\267$=\224\270N>X\221\252>Fj?=Q#\242\275\211\364\"=\002]q>3\322A>\276\025\205\276/\n(\277\226\304\266>\322\250\272\275\266\244\275>\005\240[>J\241\275=o!\330\276\250C\314>C\246\264\274*\333Y>\225\013:>\362\252\214>[\241j\277joK\276\251\2449\277\315\244~\277\373\231\227\277\305\371\246\276uZm?\2416\210>\335V\302\276\232\341\257\275B\277V>c\2716>\214em?\341\306\001?\364.\346=E\020\t\277z\273B\277\320\0224\277\317\304F??\265A\276D\016+>\377\343\241>\034\001I?\346\205\223\2772t\026?\025\356\214>\364f\031>y\273c?\037\010\222\276V0\213=`\342\232>3,\311\276\245n\277\274\324\222\213>\224\306\351\276\335\271\211>\030o\203?\205.\312\277\025\\\002\277X\362\341?\217J_\277q\037\030?\036\214r\275\n\256\363>\370W\357>h\032\274?\215/]\276i\215\271?\323\372\223?\353\2531\275\350\207.\276\364\341\322\275\014\271 =\240\372%\276A.\307\276\"x\221\275\nQ\373>[i.>\245\035V\276\303\026\351>\350iP<\255\224\313>(\315\335>\360X\304\275k\317\276\276\006\364\305\276\026X\214\276\231\325\227\276\240S\211=\371\230\214\275:\215\350>\263\332\325=Sf\337=\374}\n\277t\316\271>\365M\200>Q\0312\276\300f\002\276)\337\275\275\247\300!>\236\034.>(_%\276\231=\215=\243/\033\276\020\010.\275\206\270\260=\301\273\026?\205\333\347\275\271\024\000\276\265\273$?\177\025\235\276\310\240Q\276\262?\313\275\316\326\301>k\353\316=_\343\355>{\236\310>\344\365\032?\240\213\266>Xr\237\2753V\351\275\227M\327=\306\306\024\275/\2532\277\n|\331\276%\'f\276\345I\r?\016\334\256>\014`\314\275\346\250\305>\330\345>\273\315\357\340\275\371)\346>\223\000i\274\247\\\310=\007\354\360\275B\002\230>\326\036\224\276W\255\313>_\242\243\275\0147\037=\244\230\366>%\324f>hN\360\276\253\314\213>R\232\027\276\326G\342>*\215\322=4x\247>b\256\325>\276D\032<\203}\020>\316\354\311>\247\320\361\2754\245\255\274\333o\255>U\254\004>\327\236\323\276 \275\255\276\235<\363>\252~\026\276b_\375>LP\302\276\330\210\217>\261\334\335\274\256\335Z>\205\330\301=\247E\262>K\346\311> \031\t=\346-7\275w\253\\\275H*\025\276\252_\365\2769\245\345\2765@\275\275ZD\363>\036?\r>\341\363\003\276\326\033i>8\354\026=>\340\023\276;Q\275>\373\220\366<Q\310\231\274vkO\276\220\251->\371\262\374\275M\241\n>\363\274\010\276\010.\215=\204^d>F\n\013>\020\201\225\276\370\305i>\2660\360\274\307\255l>\234l\251=&\022B>S\345l>?$\023>\333\t\301<\034g\342=6*\235\275\250\331\351\274\273\237K>\020\377\242=\353\201\253\276<;2\276\237\241\317>\211\214\004\276\367\214\276>q\365\225\275\360XM>d\371\020\276J{+>%\347\t>:\\\266>P|q>\323\242\014\276\345\254G\277\306\222\201\277\354\002b\277S\275!\277\245\246i\277\205\236\n>\257\000\\?\243\314\303>\343\312\204\275J~1?\347\rM?/\"8\276\3525\216?gB >fp\376\276\353\003_=6\332\316\276on\030?)\320^?\265\026\234\277\020\220\275>\345\2645? \227\345>\257\177M\277\231\025x?\304\362\264>O\232\316>r\222 ?\322\3469?4\211\207?;\364;?\253w\237\275\364p\361>\350\031]>\353\3215\277\\\233\004>.\214J?\362\320\206\277<9\014\277\222\360\303?\340\260\207\277`\270\004?\r\357\250=\340>k?\003g\226\276D7\006?p\025\315>\262\247r?\"NR>5n\312\274\027\226\325\275\307\345A\275\000|\014>\363%P\277\337\027x\276\t9\013=U(&?\352g_>G[\224>\253.D?\233\330\207\275\200o\335\276z\213^?\035I\313\275YZ\333>\330X\364\276T\224\335>~\246\221\275\357*Q?\342U\350\276\217l+?\010\267H?\030\354\334<_4\377\276\022\323\004>QP\343\275.\306\331=B2F>\237\203\204>\247F\247>\225J\024>\';\323>FA\306>zT\203\275\230\245I\276Z\237\305>\310mK<c\301\350\276U\240\r\276V\261\016?\346\024A\275.\265\021?\266\223\223\276\321\366(>\031o\'\276\321\316\251>\236\374u>\364\273\311>\332\022\226>\225L\340<\026\351\223\276Wl\240\276\233Z\302\2762cm\276\020\256\242\276\350V\330\275\020L\316>\341x\227>Q?\204\276\223{\035>\267\332\030>\364,X\276]\357\261>\306@\036>?\333\276<\240R\260\276\205\315\'\276\366\374\r\276V\360\205>h\276\200\2743\361>>kp\220>\326\301:\275{\312\362\276\004\3045>\r\371\207\274\315|\303=\016\264;>-b\030\275j\345\007>\272\361\024>P\223!\276\204\021\203<\025\2224\2757\361+\276\002o\032>h\330\345=\307\353\330\276\216\277~\276\273\334\302>t\306\305\276_\310\321<\034\340%\276\370\203\214>kw?\276\256k\322>\351)$\276\2777\213>\317\322X>\353>Z\275\346\253\216\276Q6\364\276\377.#\277\275\213J\277\311\362S\277\212\361\034>\001\340\220?fD\r?\303iR\275w8&?\353\333.?#\217\035\277\216\211\277?<V\014\276Gk}>2|\367\276\\,r\277\365\373!=n\333c?\255\343\245\277\022t\351=\274\002\027?\027\022\030?\036\022q\277\260\214\t?\335J\027>\340\025\356>P5\022?\r\201\004?\003n\326>0\270a?\354\244\212=h9\037?1O\353>\230\242\271\276\205/\"\276\024\347\026?yr\325\277r`j\275\010\205\310?OsI\277Fx;?\213\312H>\005\n\311>q\025%\275\326\024G?\030\205\224=\361[d?\232E\332>\253\271U\274f\314\214\276]\331?\276\234\275\273\276\205l\205\276(R\004\277\212,\032>\345\3511?\221\355\331> \203\344\276c\331\201>\350\2238\276\035]M>N\253\362>t-\214>\211\034\003\277<\357%\277\251H\022\276\216c\302\276J\360\340>&\375\300=\2654\363=\332m\223>\242f\264\275\3149\336\276\355>/><\223\243>\013b\322>\347\225^\275\177L\230>K\240\254>\252\367\255=\276T@\276;\334\324=\274R=\276\336\200\023\276\271\244\t>\372\304\231>9\320\334\276{/G\276\310u\005?\022\"\231\276_\002\257>t\240\002\277_p\003?\320!z\276\373\362\247>8\307\301=\025\317\324>\243\354\377=\021\r;=l\220x\276?\252\237\276.\030\261\276g\277\014\277\200\371\226\276\306p\303\275\204c&?ZB->`0\226\275%\255\276>\224\374{>\2054H\276A\360E?9\007\204>\333A,>Ng\310\276\224K\254=\351F\350<\306N\021?\263AH\275\210\315\252>c\306\034?\373\315\\\275\200`\320\276J\374\355=\263\273A>\255\231\225<\020\300Q>\215d\016\276\253\371\252>\311\327h\275\235\244\246\273z\002\356=\367\225\210\276\331\275P\276AM|>\026\247[\275b\037\031\277\325\213+\276\333x\000?\221\235\030\276U\240\234>s\315\211\276\026B\266> \366\340\275\266\237\333>\254\327\252\275@\272\250>!H\357>\371c\270;\003X<\2766g\244\276\240\233\214\2763N`\276[e\035\276\235\026\025\276\233\221\227>\341\230\235\272Y\360\005\276 ?\n>$\314e=\034\372(\276\260Z\226>\304kX>\022k\210\274e\216\237\276\"\202\030\276\203WB\275\330&\236>\323\242\370;\317I\016>\367\027q>P\207\221=\272\364\256\276\033\242J>\326\246\000>\t6\"=?\356&>\000x\367\275\037\355\n=2\034\315=\230T\247\275Z\256k=\247<\034\276a\307\337\275\220)\337=\367\261\250=\346\332c\276\216|\r\276!\303\311>\240\353;\276\206uE\274\004!2\275\313&n>#\327\017\276\025\341\311>hzi\275\013K\215>\301Q\217>\266\361\211>bE\356\273\252\272\261\276\336(\014\277\353\233\277\277|A\205\277\301R\021\275\032\242\316?\307\301\255>\256\034?:x\241N?\377\221\241=4N\345\276\377\037\232?\350\305\200\276a\374^\276\300\300\342\276\231,\262\276o&\275=\276\265\327>\243?\232\277\021,\236>\367\',=\301za?)\016\236\277\26093?\036a\022<\341\037G?>|!?\217_z?\354\220\234>\373\247\220?\265\272\320>N55>\026\354a>W+\355=\005\231\214>\317\030\024?\\\263\330\277\303\'\257\276O\372\234?)eJ\277\216\211\237?\314\366\342\275\007\3101?T\312I\277\255\341\002?`\320\243=\344\024J?\234\300\355>x1\271\2743\336\005\277\314U\002\277\2048\376\276\004\237\202\277~\364\037\277EN\014\276\377\210\203?\203\021\003?r\267o>\361\377-?1\t\363>=\323\263\276i\013\224?\340\203\033\275\002*\354\274/F\240\276aG\270\276}w\r\276L&\030?B\031{\277@\003\227=\003\237\273>\335;\356>\230\261[\277\022$\005?\231\017\361=\351\003\263>{\316\021?\262\273\306>\037\263+?V\314\030?y\227\243>\\aZ>\236p\270>\204F\335\276J8\374=\021\200\352>)=\213\277\252I\177\275}v\240?\212\237\036\277;\360\027?k\027\321<o\212\313>\2049\362\276z\233\023?\333\357\262>3J+?^\341\244>\001\375,\275\336\255#\276\226\002\254\276\260Q\214\276*\t\212\276f]\303\276\263\224\360\275\271\307\256>\002\035\037>\334\332\371\275O2\004>\014D\204=\032\221\277\274\207L\250>S\241\r>\032\262\236\273\331G\242\2761\300\005\276i-G\276\357G\017>\330\272\271\275\243\017\225<\331F\213>\213H\222=\254b\275\276\036\377B>\211\266/<\014.\265<\246\024\030>H\307\t\275\304\320a=\201\200\211=\027\367\002\275\300\260\323\272\273\2334\276g<\002\276o\264\020>\n\276B>\244\207\305\276!\032;\276kR\316>\257\274=\276_$K=\330)\241\2759#M>H\201\336\275\247\321\261>3\263F\275\366\017\351>\036 \302>S\314W>\277s:\277\352\263\344\275<c\020\276\001r\320\277u\034\247\277\034\023@\276<\337\243?\030\227/?p\345h\276\021\'\377>@#d?TZ\365\276Z\375\324?\\h\356=!{[>\263\252#\277\014\0007\277\267\251\305\276\246\026\253?\313\370\235\277\317\232T>k\240z>\234\010\317>G\367\324\277Y\261\026?\2549\221>\375U\013?LE\304?\\\332-?\360\265:?\226\341j?\301).<\252\t\201?\353k\262>\250KQ\276I\227\224\276\366\364\240?\263V\362\277\t\035\343\275k\207\324?\r\340O\277\360\206S?GUn\276\272\001n?U(\270>wQm?\340\305\244>\275&f?\320\225\300>\373xS\275\272d\024=\210\252\233\275\\\022l\275&W\203\276\252\r`\276\355M0=T\214\256>c3\023\275bGE\274&p\227>[?\262=\205\020\013<}\313\211>\350\353\335;\272\020$\276\'\202e\2763CB\275\017\341&\276\'\022S=\266\362\374\274\376\271\207>\254d\362=7\331\t\2747*[\276\030\270\205=\021\024\374=\365\202\303=\201\300I=\031\233^=1\263\036>C\265\265\275\332\346\251=\246\247\034>\017e~\275\326\232];t\264\240=J\261p>pJ\363<F\0360=\320\357\263>\375)\016\276\013,\273\274qie\276\010?\200>yf\226=\275\363 >\006s\021>\010A\223>;|\222>\246Op>^.g\277N\317\246\276G\014*\277\375\203\333\276\272\t\025\277\272\365\335\276!38?\210<\260>\207\360\275\276\2034<>\021G}>!ZO\275\326\017K?3\275\206>5\2655\276\207;%\277\345\311\033\277W\032\274\276\324$G?\312\230\007>\n@\300>m\321&?\\\'\244=^I\220\277*\244 ?#;\360>\2424\305\275\037\254\030?\340\262\222\275\321Z\262>\213\213\357>\036\240\014\277\233\374\354=\307\366f\276\372\363\321\276$\221\253>;\344\222>\000\261\224\277\257\303\303\276z\300\227?&9L\277@\336W>iB\244\276\237\366\t?\001\227\231\275\327p\203?\213\256\257\275u\370U?\301!N?7\241\237=\327>\263\2763\016\364\276\225\201\323\276\240?\211\277wC9\277u\350\366\275\341\000\222?\213\007\016?$40=\273v&?\222\033\365>\244\251\274\275^\240\256?z\275Y<i\321V\276\303\365\207\276A\204c\276\307\014\036\276\002lb?\307M\205\277 ze>\227 \032>7\322\034?\014\272\226\277\"^\033?,\001\222<\235\213\375>\222\021.?\251U\352>\345EB?\321|\036?n\3157>\355\200\365>m\321\242>l=5\276\320\220#>\n\273,?!n\225\277\035t\273\276\203\307\241?\201G/\277\347\200\n?<\003\214\275\'X\357>\243\313\205\276#\367*?\311\233\031>\340\264>?\234?^>\304\300\374\273J\224\002\277\321 \001\277\016F\371\276\213=a\277\213\363C\277\217\220\001< Pp?\204\201\016?\331x\332=u\354\356>%\361\275>G\003_\276\215\010\232?\333_%\275\322\265}\275\273\246\366\276\365\363\377\276\035.\221\276\231\2135?\000P1\277\3228\202=\332\032\302>\334\307\252>Eb[\277,,\003?\334e\207>\033Vy>\014\301\373>\303\224\354>\274\316\021?\214\231\016?$Y\005>\tZX>\267\375\003>J\023\264\276\036\014\246;[\361\013?\211e\222\277\202A\010\275\265\340\224?R\351!\277yW\t?\301B<\275rf\375>\021l\227\276\245\302\031?\232F\205>\373N%?\237[\243>\201\272^\275\302t\353\275\272 \341\276\010\356\307\276\334\215N\277\356\003#\277\312\r\031\276\0131\207?h\216-?\316/<=\\\014V?V(\264>\002Mp\276)\213\237?\311\020\372=\272Q\010=\005\346\025\277\003Y\352\276#\314\246\275\365\370>?\341\004\203\277j\213\376\274\"^\301>\326\001\255>5\364x\277\237?\335>Q\304m>qL\201>\\\350\034?\237=\t?\273\214\001?\346\365(?9\300\220>\276a\247>\256\363\206>\323Y\305\276+\303\247<\335\366\007?\031\n\224\277\243\357\275<\231\211\216?VnN\277_d\023?\225\241Q\276;e\363>\030\227\202\275\342p!?F*\224>\246\"7?\201\216\244>Aa\306\275\362\'^=\240\3260\276\262Q#\276\270\346\001\277\247\347%\276\013\001\332\275kF\027?\0148\274\275\004l\003\274v\242\344>\214A,>HF\265\275\272$\357>\330\241\205=%\246\204<\204\247V\276\260\3749>\224Yw=\232@\256>\232W\006\276\337\240Z>\010\305\300>\277+\365=\277l\360\275 w\206\274\304\t\241>\253\254\241\272P\016\300=J\007\267\274\377\345\347>\211d\275\275\243\241R>9\302\254>\222\n\224\276Jt\357\275\271\312\215>T\356Y=\216b^\276($\030<[i\377>\274B\354=k\267#>e\232\222\276,\343N>\'\204\205\274{\204\273>1\003\307=\032\226\317=l8\325>,b\003\273S\032\212\275c4\302\276B\224\376\276#\320M\277A\010P\277\375\264\231<>$\206?\216u\357>c\333O\2751\247\t?\346\263j>\276z\205\276\362\313_?\365\200\264\274\257\032\376\275\324\361\027\277\017y\223\276\333w]\276\372\312\267>D\327(\277\013\346\201\275\027\263\236>,\367\333>\262\376@\277dM\323>\367\326\316;qJ\026?U\361\224>\301\214\340>\346y\357>\036\363\027?\007\344r>\205S#\274\360\3109=\305\310\252\276\025B\'=\312\\\274>\273m}\277\006\232=\276\277\332O?o\014\002\277,\3423?<$\360\274U3\260>f\\\362\276\356\347\003?\376\224\247>\273\030\020?\266\005\262>Z\034\233\276m\245-?\021W@\2764\242-\276\302\037\304\276&KD\276\350\275\340>5\026\017?D\235\037\276\272\036\267=\372r\265>9N\211>\200\035\200\276\207\221f>(\234\313\275\351\023\007\2760]\303\276Y$\030>i\346t>\246\033u\276\322m\277\275\276d\200>W@\245=>\235\215>\031no=\351\352\027>y\251\300\275b\374\311>>>\302\276\357\205\211>,\0172=\320b\222\276\n\017\264>\207\233T>\311K\230\276\305\307`\275\336Y\031>\035\356t>\"/J>\260L\347\275n\261\027>\340\244\030=b\213+>\210\331\266\275\024\251\217>\372{\211\276\330\311n\275\036em>Y\006\207<V@\177>z\025C\275\371\211X>\227\224~\276:\364\000\276\014)I\276R \235\275\341\247@\275\344\034\271>AB\262\275J#\251\275\030\010\211>\327\335(>@k]\276\337Mz>\223 G;<\355\271\275\027 \337\275\244Vm>\247|4>A\255\334;N~\235<\263\001\255>\362\306G>\244\351\201=\274\344l\275:aB>1\\\215=\201\222\316=\261\277<\276Q\256=<\240\340,>\005\202\264\273\227P\375=\303\206\030>\221\037]\276\024\006\032=%\347\204><4\364=\275\354\024>\272\010\276\274\003\010(>cf\023<q\3612\2754\361\252<FL\207>\2447\r\276f\334\r>o\252c=.O\264=\032/\203>5E\262\275\335\334\016>\210\247&\276Q\307\342\275k\236\257\276\334\321\220\276\360\332?>~\366\265>\324$\245\273\323\367\307\275\363\350\356=\022\t\036>\325\326S\276\261\3764>\025Q\202\275\350f\200\275\370lY\276\326\341^>\277\220A=\243\222\246\275\272%\030\275\221(\206>\367\236\206>\216\262\225=\250\\N\273\3579\234= 0g\275\230Q0>w\2235\276\307\035\003>{\322.>\'\323\207\275\310\023\003>\313\321\236=\n\301H\276bX\213\275\310\345\\>\316\034\n>\301r\036>/\030\270\275\035A\003>&4h=\007\016\214=u\217\021\276\302-E>\300\231\010\276\3410\223<\031\245\341=\343\207\033>\034^}>\372\004I\273\324\243\200>\345\255\240\275\301\261\212\275\332\021\262\276\317f\253\276y\326\367=nJ\300>\301~\003\276\010\205\203\275/\027\257>\033\324q>P\350\210\276@\211\332=\265#M\275\310\231\262\275\347f\017\276\213p\276>9\253\">\033\234\005\276\255\354%\275hu\237>\314C\013>_2\232\274\256M\272\275\253\341\025>\337\355\017=\337\0355\275p\306\300\275(3\220=L\003T>2\315\304<\311\343\003>\001\253\234=\271FQ\276\221=\276\275\351%t>\311\216\013>c\231\233=@1\336\275\005\250\020>`\277_\275^\352\271=G\360H\276}49>\255\034\333\2750!\235=\263\270\t>\245\006P>Q\214\237>\014\223\374\273\331$]>)O\025<\tb\231\275\376\2120\276~\313\235\276:\361K\275\314\317\240>\'\371\337\275\210\266\036\276?J\256>\336D\032>\022e\244\276M\241\253\274A\034\220=YW\365\275\2663\212\276p+\212>\372\267\024>\005xq\276\024\234@<W$u>\3779\261>N\n\037\275\265\373\354; \366I>\006x\344=\346\354\310<\2325\217\276r\355\006>\312\360.>\001d\214==\240\322\273c\263\236=\305fq\276\206\020y\276\314\223\271>\036\254\247\274y<\010>[\247W\275\206\"\214=\326\317g\275\031p+>a\005*\276\235l\037>\253l\336<\177\236\007;\235(5>\217\013x>D\276\310>\003\202\023\276\330\315F?\"M\017\276\326\373.\276/\302^\276\315\341\177\276\237J\352=o\3044?y^8\2769\276&\276\211`\017?\003){>2\356\342\276o\375\203>\256\362)\275\036\304m\276\316\313\223\276\370[N>S\226\267>\332\301\223\276\311\370!\275\261@\265>\0066,>\332\352\374\275:\264\026\275\025\2547>\007\340\232>/6o=\243\260\276\276\211;\210>\224{ >\256\023\353\275N\217)>\362\033A>=\215\241\2768\213\355=\202\017\022>\360\017P>\034B\007>\302\035\365=\024\344E>\220\345}\275n!y=\002\307\362\275\024\030\332>7{\254\275\373\024\326\274\377\267t>\235\356\200=\250\377\374>\216\241\213\276\353\033\005?\033\204\330\275N\346\250\275F\020\261\276g?\206\276N\377\311>W\304\022?9\230U\276\322\014\205\275\375_\317>S\210^>\215\374\252\276 \370\346=x\346G\276\t\3175\275\242\211\262\276\305UC>,\035\205>\270\206q\276\252\023s\276;\246\217>\222\304\213>Y$f>T\036->gg\204=\266\030\335\275\020FI>\033\020\334\276\303,:>\244^6>s\3657\276\307|\272>\367\373e>_\301\322\276\207\024\271\275o\021<>\025\335z>B:\026>\277\023\263\275y\030,>\316g\212<\320@\'=\374\022V<\370ej>\253\271\034\276y\216y\275\006\326\223>\353V\017\275\365\301l>\220\257\260\275\321A\321>\303:\252\275IV \276\r\335\334\276\330g\300\276\310\351$=\215\377\372>\213\371\352\275[\337\211\275}\020\312>y<\202>?\330\233\276\220~\235>\337\374\234\275\223\000\013\276\352\263\223\276\"\272:>\032Q\216>Y\034\'\276\314ME\276\002\235\205>!\004R>p\262\220;(\270\032\276B\227\205>p\034\343=\225f\326<:}7\276gU\023>(@*>U\023\220<$S\227\272\333\255\014>d\003g\276\026\230r\275/\227j>\317\206\303=\340u\225\275%3\225\275\tb&>\007t\253\275mN\006>5\023\000\276\231\357\014>\327}\256\2752\273\322;.\2212>`m&>c\337\223>\221WU\276\365\032\375>x\200E\276pUa\276N\305\257\276\201\010\243\276\257\006\r>? \366>\311[\026\276\022G\033\275Dr\314>\352s\215>\333C\227\276\023\004\203>\341\364\223=*p.\276\237#\207\276\265MV>M\364w>\336\226\245\275\267>$\276p\235?>\324<\201>\336W\221>q\270\370<l\005\266>\256Ii=w\336\206>DH\021\276|T\010>\270\271u>\320fE\275j\227\345=\t\326\227>\315\031~\276g\245s\274\317\253 >Eq$>9\372?>\252\005\004\276\344L\311>K\032\271\275\274\376\362=kp\320\273\206\371\234>\211_r\276L\315\">9\314\255>\304\303\314>*\004\005?\030\273\315\275T\377\360>\033\240\021\276\271\3742\27693\014\276\020\361\235\276\367cU=\025D\377>\273@5;\263\374\327\275\255\002\343>\\\372d>\340\273W\276\303\344E>\204gw=\253\327d\276]bL\276\361\265_>h\206\205>\315j`\276\260rf\275\262\006\254>uS\211>\210N\353\275R\203<\274\251|7>\010\346y>~\334w<\370*\231\2760?\325=:oO>\337K\345\273f$\220=\310\314\214=;\245t\276\235\257$\276\322\245\245>B\223\257=Q1\020>\021\301)\276we\'>A-\262=\335\207\037>\035C\223\273Z\024}>\203\241\362\275\303\326\360=8L>>\335\014^>\223q\317>\203\333\005\276\227\320\t?\370\001\010\276&\216E\276\263\327n\275`\362\235\276Hz\226>\352\3446?\257\272\222\275\272\274\010\276\317\274\023?\347\317\261>\007\247\242\276\241\213\247>N\234\211\275#\343L\276\227(\242\276?\375o=\270\003\242>\001\n\307\276?\254\211\276\\d\227>\211B\277>\314~\311\275\325!\237\274\367\362\027>\323\325C=L5\247>;\214\335\276\374\2677>~\273?>K\020)\275\333\2576>(\221l>\276X,\276\353\002\001\276x\004\030>\370`\374=-R\024>\235\036y={\245\243>\2025\305\275\037\017\345<\003\224Z;\3117\270>\342\000\006\276\002\306-\275\353]\255>\367\300S>\305\367\337>a\274\211\275\241\315Z?\254\t\030\2757\246h\276\373\223K\276\327F\t\277\367\020\305>\340\3620?\274\314\010\276\356s\r\276\330\366\031?\262\361\365>\027i\351\276\266\360\227>\206\007\003>\005\351\261\276\232H\320\276\207R\251=T\223\375>\027W\271\276\3102\215\276%{:>O!\331=Q\253\032=*\264\230\274\3325\037?\304Hg>.\225H>\355\305\221\276=#\217>+k\177>\201\206[\275s\"\222\274w\365\221>\352\340v\276.e\274<\222\325\241\275,s\213>6\007b\275\333=C\275p\260l>\351L\325\276\234\304\272=_n&\276o=\334>\301M\013\276S=\265\275\237\204\302><\016\327>\346\304\005?\025VU\276\346\242 ?\271R\001\277\333\337\007\277G\230?\275\357\251E\2771_\316>c\007??j[\203=\270\013\262\276\034\2408?\033\3204?\026\331\004\277)=\276>\302\272\'\275\"v\026\277\331\206\355\275#\271\240>\370\227\323>\240\217\322\276\336I\254\276`8\330>\377\323N>0\341\036=_E(\276\374m+?\217\277\305=m\202\362>\n\260\202\276\314\317\210>\252\r\323>\343\010P=\253=y\275\004@\203>0\234U\276br>\276JGY=\177\327\363>E\2205\276K\000\264\275\225D\232>\250\331A\277g\261\257>\236H\302\275\022^A?\377\236\317\274\003\325\201\276\2002\363>\364\313\024?tK\275>\276h\304\276\360/\323?=\002p\276[RA\277V\335\237\276\241\335\033\277^\263\203?\024\314\341?\357Q\255>F\246\205\275\022\317\215?={V>`I\035\277\001\273e?\205^\362\276\370\300\211\277/i3\277\335\241\027\275\245\213#?\350GG\277_\370J\277&\273\010?\243/\226\276d_\315>A\025\345\276\\\177P?J +\276q\206\302?#F\321\276\276\027\202?j}\230>\201\3504>P\251\273>\200\371\255\274\253\220O>#\345w>\r\305\347<Z J?\262\377\215\2750\356]>\275c\341>C5\222\277nDt?\016\030\243\276K\2644?\325$\360\276\274\316(\277U\360E?\211\307\357>6\230)=\031t\356>l!C?Pg\207\277\275\ra\277?8\026\277\257\024\204\277O\257\200?\237W\301?D\377\305>\271\321\216\276!\265\216?\034\322\223?f\375w\277:r\204?\233\275h\276\t&O\277\215k@\277\033\370\013\276RK\276>\226\003\035\277\215\004\276\277\372{\210=\031wV>M\341\206?\205\3010\277\211.\265?G\272\356\276\265\026\272?@\3078\276\224\364\021?|\360,?\033\376\034?Y\367\211>=\370\263\2748o\232>o\367\360\276B2\365=\273\242R?\253-\032\277\026\016\006\275\277\000@?f\0101\300\320\336\206=\327\206\362>N\2678?\267A/\276\201\203\245\2754-@?\355\341\313?\344\2106?\\\013\014<\014\275o\277\344\020\'\277\246<$\276t\330\303\277Q\230\215\277\376D2?S\337\272?\006\301T?\304\267\001\277_\347\236?\"\367\036?\352\376O\277\361\232o?\003\006R\277\362]\013\277z\234\010\277I\215S=\203R\345>\273\221R\276\336\222\024\300\220\006\004?R\032\263>x\322\276?A\361\277\277r\215\241?DL\312\277\345\001e?\3170\217=\375Fs?\337\267\013?\253\300\302?\002/\003?Ts\271\276P\205\363>\224z\037\277\317\234q?$o\241?\004!\232\2775\244\261\277\214\337i?\210L\t\300\230\026\253>\301[\033>\265\214\235>=\371\336\274\256\360\023\274,\021\324>\211\245\341?\360\346\360>}J\010\276q\255b\275\337\017\253>\032\004\334>wi\251\277}BV\277!\327\201?2\217U?\201q`?\223\007\241\276\263p\035?I*\354?\025\365\260\276\234\345\250?\306\036j\277\332@\245\276\213\340Y\276\026\310\202>nY\216=/u\'>\241\256\314\277\262+\265>\204\256\306\274B\265\255?@RY\277\227e\211?\264\315^\277z\246\016? \314A>?v\276>uF\231?U\346\r?\215z\324=\034\236+?\231n\310\276\236\367\353\276ZW4=\177\216\355?]iQ\277\304QI\277\017.I?Kk\236\277\362C\024\276\036)&>\223`Q?\'\217u>\253\210\312\275\r\3130?\206*\016?\224\246\237\274\030\205$\276\250o&>\201J.<\221\266}\273\037s\224\276b\240@\276\305a\374=e\010o>\363b\254\275rqt\275o\002X>\234/u>\203\227/\276\376\365r>\354\364\211\275FE\220\274SRD\276\313\037\223>J\272\253=\236\2776\275\221}\245\274\320\275\213>\370T\232>\311\010Y>\274G\211=(u\250=)pC\275\205u$>\016\302\374\275\340BS\275[\237\326=5\356\223\275\242sh=\003\376\212>\247z\236\276\026\323\252\275\217\002f>\334\2527>\257yc=\224\361\002\276\374C\336=\372\344\037>gX\212=\335\224_=\033\316M>:\325/\2746\273\372=\351\275.>\221M\245=\037\001\240>\270\2164\276\206]\275>i\312\267>\037\236\000>ro\222\277k\315I\2777\250\216>\243\371A?\234\334\226>\275M\343\274\353\234\026?\312\222F?\233\276\310\275\026lG?_ \234\276\245\314\225\276\322h/\276\201\020k>\300\337<=\211\345g\275\367\033+\277>\230\240=\027\313X=\006\267&?\313p\007\277\314h\025?\211`-\276\332n\010?\025\020\331;\247\314\344>\377.\t?\301V\313\275\314\327\010>\356$\023?\315\204\211\276Bs\013\276s[N>\313\244L?\344\327\273\276q\204\002\277,\275\"?\253F\275\276\357T\224>U\331\326\275\363U\340>/\331\334\275np\324=0\266\030?\024<\261>\335&\275>\333\020n\276\005\363\212>\222\301\314>a\227\023>!\266{\277\246h&\277\375A\246<B\024.?3h\377=\245,\r\276`\206\347>\366v@?_\021J\276i\3044?\221\004\211\276\033\327@\276\262}\274\275\307\244\255>\336\213q=i\323\240\273\335r\037\277\030\007\036=/e\205=\236i\r?\'j\036\277\223\352\025?\177qL\276i\227\343>.T0>U\035\271>#\221\036?\020\204r=\255W\212\275\321\375#?C\022\250\276\226\235E\275q\275/>\306\360\007?\242\246\324\276\314\327\320\276\333\326\037?\233\n^\276\223\270\301>+J]\276*\325\357>\026\027\013>\244S-\273\237.\353>b\233\330>\317\264\347>2\027\334<\nn\202\276\372{\251>2\330\302=3\245G\277\346C\300\276!\367\307\275p\337\007?\260\3467>\037S)\276\216\334\327>\321\2568>w;0\276\367\005\330>\363Q\t\274\\D\230\275\222|\001\276X\\q>^&\361\275\233\323\217>t\336?\276A\3329>\234Y\313>\215\345\226>\226\336\014\277AP\212>P\331\037\275A\255i>\357\227z\2750N7>\356\313\373>\357\252\357=?\344|\274\355\231\240>\375\252\205\276\220O.\276\225A\003?\262*\232>\346\276d\2762l\343\276r\355\007?\315{q\276\030)\250>B\223\344\276\000\355\351>\211\360\225=9\226\204>y\322#>r\305\307>\333=\341>\315\326\024\276]\021\260\276U\320\262>\363\033\237=\263N\221\277\246\027!\277wP\252\275\345\274/?\201x\341>\r\236\n\276\320\210\030?\343\344|>wzl\276\351:,?(\251[\276\267\330o\275\016r\026\276;\025\322>}\233s\276\021\244\016?$-\000\277\030\314h>M\303\014?\331\355\363>D`|\277\027\035\264>y\243\251\276V\216\033?\026lS=\342\352\027?\355\r\033?\310{C>\315\230S>\314\203#?\306?\375\275\253\327q\276\016v\013?\240\001\006?\000\364\004\277J ;\277\025\314=?\271\377\026\277Up\030?\376\2576\277\332\246\006?\362\372!=\211f\244>\377aS>3\355\010?\244S\344>#\2171\276\235\025\254;\211\3628:-\367_\274\231\341\007\277O>\211\276Z\370\216\275Z\354\262>\311\252\353=\312\212\363\275\030\356\345>U\223\035>\220\327]\276\255\356\242>\325\225\016\275\333\305\000\275\245\376\033\276\340Z\307>\203q\362\274!\300N>\010\340\226\274Yp\225>-\236\275>i\352S>\337\361\216\276\321\3732>\226r\247\275\010\000A>L\265\223\275\250\367\366=\027\344s>\375]k\274B:\034=H\351\254>\274\304\210\276\336`\331\275\203l\263>\312\356d>M\247\006\276\014\337\250\2769\316u>\305\216\252\275\370\234D>\276\000\220\276{V\227>\244\312\210\275\220M\202>\207t\343=\0366n>.\243\324>\002s\345\275\315WZ\275\006O\344\273\262\355\211\275\010\216=\277o\n\335\276\341\031X\275f\3720?\247\220E>\021wP\276D\375\352>\334\'\206=\205\232\225\276+\344\272>7p\350\275l{\003=R\021\220\276\236/\372>\'z\273\275\224\351U>\246\253;\275\316\016\321>?\330\343>\246\211}=1\371\363\276P\207\034>7-\\\276l\277\335=*w\267\275\215\367\211>9~\232>\375\217\364=\373\374\221>eSa>r\252\207\276\213\252\222\275#\206\364>\214g\000>\210\206*\276\322\335\321\276z\220\331>>M\342\274\212s\267>\264\207\330\276\355\374\221>\034\337i\276\210\271C>b\223:=c}\200>:\326\254>\022\003\336>\277\242\265\277G\0104\277q+\345\276\366\334\267\277\333!\241\277@\032\320\276\004\246\240?\221\032\207?\244:\240>\260\371\237??\223\276>\361_\253=)<\363?\276\356\000>\227\307\351\275\221\320\202\274\240\257\266=\306\037\014\2779\273\201?`\024}\277\023\t\377>T\275\235>\276\324\017?>\033\376\277\352\332\211?\377\010\277\275\315\327\263>\247\177\301?/\025\335>{\261\034?\254(6?\367\240H\274\324v(>\004\265\013?\267%\275\276\305\244I>\375\3330?\266^\n\300\206\244}\277\326r\272?\235\013\270\277\275\336V?\271W\306\276\347\334\'?8\372\231\276\354A\202?v\037\342\275\232\307\264?\316Q.?\234\325\351\275W\233u\276\326\234\220\276Y\353h\275\021\301\214\276\007\226(\276^\332\330\274\030\026|>\250\311\345\272S\021S<\274:\316>\301\027\027\275v\022u>Q\351\277>\271\241\337\274\304\321X\276\2427H\276_\030\014\276\021\033n\276j\351_>g\200\220\275\356rq>\332q\202>a)\202=1\264\203\276\331h(>\277)*>\374H\241\275\315.1\276\272O\333\274\346\265\273=}\310M\275\260<l=\227\307\325=\027\002\361\275cl\200\275\273P\361=\311z\236>\321\033,\276<{\270\274\310T\254>\312\324G\276\363\273\221\275\306\031\211\276;B!>\350b\246=\036\001\216>J\215\r>N\333\301>\340\211\231>{KS=4J\214\276X\373\230\276\332\367\253\276u\230\265\276u\317\246\276I\030)\276\370\212\003?\027\024\262>\2374\360\275h\326\025>\342v\211>;\361\212\276\373\237\010?\242\376b>\271\331\000>\313*J\276\014\217B=\300\010\034\2769\255\277>b\367\212=\333\226C>p\277\277>c=\363\274Y\325\331\276\017\016\252>\036\337c=\245\257\201\274\242\237\245>\237B\245\274\231m\324>\025\\\372=\3563\354\275h\276\324<\025\306\016\276\237\222R\276/aM>\370/\033>\311\214\377\276H~p\276\327\260\356>\273\2200\276H\013\024>\332\317\005\276\n\310\317>\241NB\276\376\224\322>v\"0\276\373\314\233>\215\373\252>|\255\244<\215zf\276\226@\247\276\310\014\207\276\212\005\221\2765\336\212\276\313\353B\275\262\003\364>\202pi>\231]\004\2765\025\322=\004\235A>:\321\007\276\035\325\372>\244\203\323=O3\322<\353\010M\276\2551E\276SE\316\275h\020\306>k\353S\276)\023w>P\211\244>\001\231\'>U\300\261\276/{\224>\273Rl=\300\376\014>t\274\361=\351T\371\275\264\242U>\374\362\205>\2474\346<\216/@=\026\021\357\275\034z\255\275\274\313I=\311\026\220>sM\331\276\371k&\276\312\002\365>\3514\207\276#\201\320=W\354\206=\000\336\242><\342%\276gt\321>\033G\255\273\203\267\227>(\030\212>\236\312\024\274_\311\217\274\3078|\276\353\203\212\276K\225\023\276\362wX\276\016\t\336=\367\202\347>\005\000\245>\266\263\351\274\035\211\036>\250\321y>\004v\230\276\010\360\331>\270\332\301=\007\275/\275\260\3372\276~Mu\276\2169\202\276\344\010\230>\244f\360<\267\0359>m/\213>\305\314\212=\374kH\276O\263s>\006\256H>\3003(>K\303h>\246\225l=\232Au>dI\026>\312o\243=@\031>=\036m\337;\216\300^\276\313\221,=\351W_>\376R\225\276\027\255\324\274y>\364>k\002<\276v\356\323=\313\373\025>\357\363\260>L\0230\276;\226\214>\231\356E=8{\222>y\357a>>\233q=\303\267\336\276\266\2109\277p\233\357\276\223\372\025\277\234\261:\277::`\275\212\216.?\211\251\001?\250y\351\275+05>\275\2140?Zm\245\276B\262d?b\333\207=\334\237\032=X \271\276\350\275\342\276u\014\274\276\023o>?\350\204\352\276\314\227\217>\207\333\342>\001\032Q>BsE\277\026p:?Y>\361=\344\276\206=\266!\006?\223\260>>F\003\001?\246\255\352>K\324t\276\370q\t>\221\367\220=\366h\304\276\205H\230;\027\316\016?\020k\203\277fT\223\276\374\354[?\301k\r\277\237\022\'>\005\376+>nO\013?.Gi\275>X\035?\236m\203=,cX?H\265\320>}P\311<\221I\254\273\265\260z\276/K\201\276\261\350\267\276oVp\276\333jz\275\237\250\306>)\013Z>\320\374\216\275\007\341\207=\233\210\232>Yq|\276\257\314\364>\225\241\020>\003i\227=U\034W\276)\274W\275\236j.\276\372i\303>&\205|=\016o\323=\210\366n>pn\014=\231\325v\276\304xt>\313\372\377=W\001\242\274[\304g>lN\203<\375\332\177>\034\275\246<\302\013\246\275I\004_<\t\350\327\275}S=\276\207\353\033>\260\007\202=\227\275\346\276,\250\350\275E\224\273>-\337Y\275\327\352B>\210?\320<\255I^>\212\323k\275`\355\214>\020\2604\276\322e\203>MEn>*\2107=\376@q\276\305\321f\276t/\023\276\177\371p\276g\212K\276\350\371x=6X\316>\014\203W>S\r\330\275\260\335\202>\262{6>\222AX\276^\310\263>S\n\367=\273\303D=\354\372\202\276n\252\200\274\014\363%\276d\335\245>T\300\256=\313\335\267>\362\242\243>\333\377d<\252\217]\276\001c4>\210\374\334;\373\273\250=\332I\326=\200#S\275\237\035d>9)\"=\324-\037=\270[4\275d\376\215\275\025tQ\276\245\364D>9{\007>\005\353\302\276\224\337\037\276=\231\262>\315\222:\276\2523\231=\020\3209\275\316\276i>\275q\003\2764D\225>\336\305\327\274N\001\302>!\002t>\003|\025=\257\354\260\275%\372\032\276\350\267[\276\r4\255\276i>3\276\252\nb\275\337m\354>M\341J>\230\327\311\275\377;`=\002\316M>m\203 \276k]\356>bn\n>K[\r=\245\210q\276H\361J\276Y\353D\275\354\236\235>k}\223\273\3413\204>\370Wl>*\251\026<G\316\220\276\317\025\005>L\360\024>{2X=~\2677=\302\006\030<a\315Y>$j*=5\366\341\274\376\246\235<\267\247\224\275\356\177\303\275\350\020S>\'$\323=\236%\220\276\300\t\226\275\270\321\332>s\365\336\275\236\311\270=[\271#\275\361\205\222>\301L\306\275\334\215\230>7p\337\275\317\001,>\034\311\207>PJ\316>Z\317\317\275\034\334\206\276]\366\024\275\224\232\266\277D\270\240\27712\n\274\025\333\236?\216ye>\246U\224>W\337\010?\016\224\006?\304\365\315\275\242W\336?K\311\305>\243\212\014?xT\231\277d\217\202\277JV\022\277W\'\225?\327\234\300\277/\261\356\272\355n\216>CR\240>\346\032}\277\210\363\364>$U*?\224\304\242\275S=\212?\321\334\374=\030\224:?@\035C?\203\240\245>\340\367!?\3529\246=\273]B\276q\3111\277\313\270m?\211\374\247\277T!g?\336\300\306?\377z\207\277!7.?Z\267\334\276\3476\030?#\215H?\017vU?\245\203\003?F(\211?$\243(?j%\340\275+H\246\275w\"+\276\302\234\203\275\0028\021\276\025\313l\276O2\355\275\2648^>|\311\214=\271\r\016\276s\354\262>\262\250%\275\3544\341=Rx\214>\377Q\215\274\372\023%\276\246\303v\276\363\243\227\275\037-\025\2765A\007>\350\345\211={\374\237>K\245X>U\230\344\273\347\273\203\276\206\377c>\350e.>b_+\276H\232\377\275\273\253(\275\023\'\220=\33274<\353W\302\275u\367\356=^W7\276\177r\243\274\267\332\376=\0072\266>\n^\272\275\227\207\003\276P\311\221>\262\213b\276\005U\t\276\315,e\276pg\r>\371k\377=~\250\226>]\317\225=\306\003\227>\035\350<>\321\237C>\332\021h\277\302 \351\276J:\006\277\337\031\276\276+\037\'\277\223\\(\276\233\366\027?\214\375\327>zj\360\276+\010<=\2136\225>\013b\247=:\2129?\r\350\344>\004\007l\276,\275\335\276\374fN\277\230\350\274\2762\2643?i\266\353=t]\321>\000N\267><i\257>\235xm\277\340,D?q\024\263>\002\266j\276\027\263*?}.\341\276W\340\251=c\002w>Zb!\277x\023\265\275\254\t|\274\305\353\227\276\177b\266<\342\245c?*\\\203\277\207\2327\277\246\306\230?G\000\201\2773\331\021\276nr\326\275\n\005\365>\014\214\240>\273\347\236?\323\301-\276\034\244\246?\2775h?\204\304\304\274K\2464\276\023\226\025\276;\312Q=\r)i\276k\246q\276\374c\273<]R\272>w~O\2758.\023\276\322\230\360>\257\205\007=\321\350/>\374\t\237>\232\256?<\031\210\245\276\351\207s\276\335\205\025\276d\344\200\276Q\273\r>\n\247\266\275\375\273\215>\330\261\321=\226\302\377\274\377\261\220\276\324\275\321=\327\351\212>(L\026\275\217K\247\275\002\2369=S\264J>J\264\024\275\016\226x\275\340\223a>\326O|\275\006,a;\032\267\274=?\316\360>\310\344\t\2760\013A\275\376\030\301>\371\354\200\275\341r<\276w\320<\276\2213\233>D\341(>X\232\251>\334\3008>\033\271\336>-\357\252>\025\255\243\275m\247\324\275\265\216\035>\277=\300\275\341\347\337\2761\000;\276\315\366\307\275\335>\204>\004\346\177>!&\227;\002\007\255>\365\324\223=\021\333\021<+\365\264>@\201\022\276\033~I\275\257\364\023\276\246\220\032>\351&\023\276\031\007\221>9\200\302\275\357;\033=^\217\323>\211\001\032>\2672\270\276\"\277\374=8;\240=\227ag=*\324O\273\200\240G>\324/S>\241l!>\035\036\004=\267\306k>\246\264\205\275\352\212l\276<)\204>/\025\007>\342\337\333\276\337\016\205\276\0216\223>#/\201\275\247\346\305>\300\326\250\276\244\003\036=\267\310K\275\262\267\212>\346\367\250;\273\371\374=\2207\201>\272\341\034>an\377\276PL\255\276\271\356\204\276\300 9\277\367\306\n\277K+q=\327\263c?~\367\376>.m\217\275sV\022?\207ds>PN\"\276\241$i?\235\033g\274c\250F\276\332\030N\276\305b\024\275\024o\253\275;\353\005?\224a\r\277)8\306>/b>>\355z\240>\360\035N\277V\222\316>\234w\335\275\362\036\304>b9\323>\213\265\r?\322H\003?\333\325\004?b:[>J\204u=7b\023>\'\r\204\276\375\275\372>\341\342\304>*\374T\277\257/\327\276\371\360r?\322\275\363\276\377\013!?\324\262\206\275\202j\366>.:\215\276\237}\270>d\322c\275J\265(?/\243_>\025\270C>)t\005\277\256n\371\276\206}\374\276|\313/\277\350<&\277\304\007\t<\235\207S?\014\217\311>\350\250\034\276\037\031\233>~\313\003?uy \276\366\037y?{\340\021=\265\253\000\276\n]\323\276c\324}\276P\315\210\275\260vd?.I=\277\273\252,>\305r\214>\223\210\272>\027\304o\277.\216\005?!\250\246>4b\000>;\301(?GIp>\010bH?IU0?\222Sp\276\307\000\225>\210I\220=\300\037\260\276K\323\220=$)!?N\270u\277:[$\276C\244\206?\357\243\030\277\214\252\315>\240$(\276\207\023\035?B\253\\\275\033^??*\230\313=\321\244+?\002\353\226>\327\317\360\273#-\334\275\"\364K\276\315\246]\276\235?U\276\017a~\276\342\221\251\275\250i\331>\237zd>8\220N\276\313\334\374=\002L9<\227k\217=\225\277\272>\232bG=\245\200{\276#\263p\276\354\010W\276\243\"\262\275\325z\033>\325u\235\275\340P\275=\247\242\n>/\016\345=-\240\277\276\325 X>\271\035?>x\005\377=@\230A\2753\177\372=\333Z\035>\016+3>\331\227\263\275G\203\220=\301e\330\275\226\025K\274]\304\022>\330\027\204>5\2440\276\254G:\276\022\005\357>\236\261X\276\262\237\222=\275k\320\275y]\246>\362[,\276dn\246>\246^\206<\270c\205>?]]>\022$#>aC\000\277\353\221\244\276<W\311\2761XH\277q\360#\277\211\\\017>N\371n?ei\316>\276 H\275\330\353\002?\306\246@>\330\242\024\2767\261]?\357\365\014\275\274\377\246\275\337\322\001\277\rq\307\276-\303\300\276\327?\001?\023I\022\277\234\206f\273\374n\231>\244\201m>]jG\277\024 f>r=\010>B\231\204>]\254\273>I\226\264>\010?\010?\334,\330>i\260F>c\014L\274\357a\025>\264\331\315\276D\214Y>\376\215\345>\314\342~\277\215Y\276\275,\252n?x\320\000\277w\252\300>\001\374^\276\366\235\235>\355\3642\276\256\277\r?\265\023\005=\315/\025?d\333\225>V\r\320=\310\004\t\277\351\"\224\276b\262\233\276n\023?\277\310j)\277\273\217\345=\313\205]?\274s\032?\036\272=\275\271z\301>\233\356e>&\276\013\276w\330C?m\302\";\322\212\031\276\210a\370\276L\370N\276\030\230D\2761\206\351>\2041H\277Mjn=]\r\237>\030\341\304>\211\224_\277\003\200\206>~i\315\274[\255\375>m,\264>8r\342>R\301\004?\217\022\366>* \215>\301\033$>qB\003=\013\246\265\276#{l>\334\270\004?25J\277\236\343\245\276\336/x?+DC\277y\351\316>Xv\206\276R\227\341>\255\347\323\276K\361\t?~\356=>2\200\036?\330\n\250>\365\313\013>\033}\021\277\257\335\271\275\221g\323\276\234g\222\277\226+k\277\205p=>\232\000\257?a\240\016?|\207\r\276\345\350\006?Vs\207>u\251@>F\270\246?\'\232\314>\000\222%\276\312/{\277wz\200\277\305bQ\277ur\232?<\352r\277s\034M\276\004\232r>R\2711?\247a\207\277TD\307>\200Z\332>\205\003.?\231*r?v]`>Q\361\031?Mt\021?\241\010\032>\004\271\323>\230i\264>\240\003\002\277\240\270\247\276\257Xk?\363\004\301\277\243\032\307=\003\363\325?\213\3017\277\230\333k?qz\024\277\300m5?,8\352=\211\351b?iq\302>q\350t?\337\004\347>\200\330i>I\237\033\277bdP\276\357\304\214\276\266\023\335\276\351\'(\277y\307\314\275\223\231\t?\351U\302\274\364\335d\276\2660\274=N~\r>\237I=>a\312\336>\036\250d>\342*\323\275\3602\302\276\206\341\342\276\024\213K\276t}\367=?\362\210<>;\202>\330,\232>Se\326=)-\017\277\260\354\233>\346\232o>\232\310\236\275I\2459=\233\303N\276O\2439>O\262,=\212\"(\276U\253~\274_l8\276\'\006?\276D:\340=>\343\274>\235\200\361\276\347\350\202\276\352eD?\273\341\020\277\227\255\226\274\201\300\013\276_\237\225>4\367\026>\227\033$?\023Z4=C\n\024?\3217\023?\220\272\315\275~\2059\275N[\257\275\213P\245\270b\246\207\276\002\235\326\275eY\237\273\034W\323>\337\320\200=@n\207\275}\202\256>\027\0030<k\272\004>H\231\266>\231\026\335\274\244\r\353\275\367P\227\276\332Ow\276&U \276\236N\017>6{\341\275X\341\\>\373\270\023>\321\312\236<\230v\253\276\306m\330=\303\020\005>\240\373G<\301\367\231\275\013\220\246\273>\206\021>\252\354\005\275\344\006o=\017\331\">\216\002\375\275~\000\317\274\346D\213=<\t\312>M\311\'\276\301\320\025\275\216\260\317>!\231\025\276q\206\216\275Aib\2764\316e>\242\034\375<\331\026\241>Ep\031>\362\207_>x\205W>a\266>\275f(\026\275\004i\343\276\344\336\276\2760\237g\277\206\332\362\276\244?\264=\375z\202?\205\203\205>Y<\'<+\"-?\273e\244>\265\333\260\276_\300m?\232\232?<\232-\213\274\200!\026\277\371\317\311\275>\010\203\2715\t\351>k\200b\277\316\032^=\r\rG>/\246\245>\253\320\'\277\032!\222>\032\354V=_\260\347>\017!\215>6\264\366>\036\033\005?\030V\264>P\215{>2\267\243>l\303\023>oPj\276\032;\'>\373\353\301>mV>\277\300\232\030=\275\344D?\201\014\266\276\301\204\337>?\342e\2762\326\347>\260\034\270\276\031\326\350>\n.U>\377\362\331>\201y\243>)\0365\275\241\004\250\276\334H\205\276\360\300\376\276\016d\032\277(v\010\277\016\300j\276\007E0?\t)\302>\375\025&\276h\230\004?\327\243->\324\344\230\276\260/\373>hd\237\275I\262\203\276\363o\202\276\'\244\004>3\235\231\275\307\031\343>s\207\310\276\231dT>(\036\323>8\317(>\235v1\277\311\303\347>\371\235X=\014\357:>\244T\226>jw\333>\037*\354>75\020?\333O\367=\202[\306=EET=\026v\317\276\263:\324>T\340\204>\236\2120\277~\356\351\276\334!7?\305\275\372\276Mr\013?\324C\206\276No|>U\030\244\276\240\326\002?\203\331\231=\030\333\342>\260\340\221>\316\220\324=cU\002\277u\321\234\275\363xT\276\334y\"\277\230\232\035\277,\212\370:\322\323T?gm\024?\353\245\275<\221\026\377>\304K\333>+%\234\273\376\030y?ah^\274\370\310\325\275o9\322\276\370\022\261\276\035\222\307\276\315\361\377>\225\025\006\277\306?v>|\352\250>\023\357\222>\344@K\277b\261\242>\216\277\206\273La\357>\345\230\345>\0204\216>O\210\035?\262\272\225>\272\232\272=\323W\332=\031\255\013>b\331\362\276\233j<>f\356\n?\347\251f\277\3267\234\276\336\266\221?\204&\003\277\303^\376>\272\036\226\274\267v\263>\355t\330\275\340\213#?\227\275M>\344R7?\030f\300>\\\"\217=Nr\225\276\3268\034\276EaD\2761\2518\277)\341\025\277\211\022s>\\\302b?\236[+?\277K\355=e\377??\351\026\311=\235\223\276\275 ?L?`\032\002\276\340\312\225\274}o\033\277\315\270\304\276w=\243\276\332{\335>\302VL\277~\313[>\363\311\256>\221n\341=M\247T\277t\215f>%\234\037\276\014,\343>\236V\010?/n\374>\005{\231>I\022\275>+]\355>\2439\215=DB]>\227\346\264\276\222 A=i\255\033?\317\322r\277\300T\241\276\257\272^?4\2335\277M?\007?{\326\261\276\274\013\241>\362\003\234\2761y\273>Bs\314=\272\346\031?XY[>\230\t#>\256\020D\277\327\031:\277\221]\031\277\000\032\254\277z2h\277\235\220\007\277\\\213\204?\231\267X?!\364\217>\342\036P?\th\307>\243^\300\275\352Q\275?I\'\207=\231\344]\276\033\321O\276\363]\215\276\254\332\337\276\267\345~?\026\030\211\277JC->\313\002\233>\027?\356>g%\313\277\274\253Q?\340\364j>\224\227\305>\035\200\230?\375\362\317>\335\224\036?\325/E?/e\355<\220\030 >!\266c>\030*\326\276\302\3405>\221i\027?\014\347\367\277\242\370\331\276\021\323\227?j\271\233\277\370\031@?\240e\222\276\262\260$?J\343\005\277\371\353\027?T\013\272=m\266e?\306y\231>IN\343\275p\373\371\274\361\3765\276\254\276\201\274T\265\347\276\332_\033\276\202\037\247<\004q\307>\005\275\032<\364\375\331;\310@\235>`\254\266\272\200\277\230\2754P\360>\362\256\306=J\236\225=q\013\264\276\337\332\022>\001^!\275Z.Z>\035\311\201<\"\371\303>\r\240\304>\321\325\252=\233k\036\2767H\311<\232e\355:\020_\225\274\213\320f\276\021Be\275h\211\346=`\221D\276\246\3749>\235\276\350=tGW\276\203a\005\275\316\251\240>l\212\357=!m\352=\232\255\210\275\037\362\201>\200\307\001<\336\343\302\275U<\202\276W\332%>\344\'\242\274\261}\214>\346\332\221\274d\247b>\207\261\276>\365\037\301<G>\365\275\337A\316\276i\354a\276\004\254\204\276\340\270a\276\340$\311=|\024\345>dKY>\372\356\323\275Zku>\2146b>{\217-\2760#\323>^\330\210=tTq\275\332\374\273\276\034<\334;\257\361\314\275\367\264\275>\327\350\326\2750\030\241>\204\234\201>m\201$=\200\273\271\276\302\217F>A\231\334=\021\025Z<4jE<z(\202=\316R?>\272\021I>\323\0347=\341\240\303=\023\202e\275;\n9\276\272\032\326=W\267&>\311[\202\276#9\340\275\347\266\277>k\231I\276x\336\264=\000\320?\275\317\256\236>\306Gi\276\370\275\256>\301\317\203=\021\374\221>\206_\'>,\302\305=\314\001\242\275\323j\035\276\021`/\276\326\345\232\276\t\357\200\276\373\374U=K]\314>\205\246\013>Ks\n\275\334T\022>4\036\200>\021n\202\276\" \334>\370\253l=\347\031g=Day\276\306\265j\275-\242\243\275\026H|>\020u\022\276\t\355<>\241ku>]\222\306;5\365\202\276\265\275O>\2661\000>\033\301\244<^\247\261=\363\031\023=\214\213e>T\016\030>NxS\275\017\021\215=<\345\341<g\212+\276\n\322\336=\377\361\023>zH\226\276Sc\211<p\004\305>vY\300\275\221;R=\031\356(=\366pz>\023\353\010\276\337\242\215>V\222\225<M\002g>\221\022Q>rbQ>\243\245J\276\203 5\276\355\320\225\276\352\024\033\277d\335\356\276\255\317O\275B\017\n?\347\025I\273\262\366\350\273\205\274\356\272Tta>^\235>\276\214\211\032?\361\203\017>\200\265\243=\005)\177\276\250\261\375\275`\000\240\275\036\330\275>\202\\\224\276\304\313!>\361\353\227>u\361%>kN\326\276\255&\225>\373\250\013>\326\016c=1\036^>\274\000\303\274N\033\205>\242\251k>5C\013=\357\373\'\274~\340\210\275w#\021\276\242\341.>/\355\303=\360\035\t\277\276m\016\276z\262\"?\335\244!\276\037\335{>\"\261\031>G\353+>\350\367H\2769\343\325>\246\215<\275\336\270\273>V\"\233>\316\273u<\023!\325\275\377wa\276\312P\212\276\027\345g\276\267\230C\276\243\0311\273\3013\307><\031\226>\342?p\274\034\255\021>\267-\033>\352\206t\276\343:\355>\245L\262\274R\215w=\207T\214\276\244\214\373\275\350aS\276\331l\274>\007\203$\276)}T>\370\203\235>d\002\210<q\344\303\276M=\201>\353\343\033\274\224g$>Q<\003>\306ls=\363\333B>\226\266\216><\316\361<\203i]\274+T\326=\013rC\276\034\213/=7[s>\376\244\325\276v\310?\275\334\247\331>\031\006L\276\010)e>\341D.>{\202L>m\341V\276d\325\262>\336F\370=\326\300\221>\214\306\352=V\242\242:\362\341\020\276(hn\276s\235\235\276\200\377n\276\207\014Y\276\201`\326\275\253\n\244>|\002l>-x]\275\261_\200=o\\%=\360\034\026\276\236<\266>\324\241\205=\226\224\265\273U\250U\276\276\253\340<z:\267\275\266\334\222>\220\224\352\275\223`\033>jIg>\366\233\226=7\222\247\276\332LX>\330\232\264\274\364\231\355=/g\003>lo\262<\317\224&>\272\022K>\026\215\212\274t\345n\275$B.<}\357\035\276e\301\377=F\222\210=\313O\215\276\321\304*\276\327\247\243>\347\021P\2763dG>\227TP<N\310\026>2\262o\276{aw>\353\206\034\2745\023G>\370G\317<6\202\n<|\303\364\275AO\200\276]\247_\276r\205\230\276\203\014\226\276\016\373J=\367\342\321>\371R\366=\341\370\201\275\200m,>\003e\000>G\007\243\275;\205\251>\377K\273=\376&\013\276O\262\245\2760\035<\276\271\004\342\275sr\222>R\t\016\276\307z!>\026~Q>;\302\362<]q\221\276\274e\\>\320sm>w\021\237<~r_;J-\004>pE<>ow\373=\342E7\275\312\021\202;\363\241S\275\"iR\276\026\254\317<B\324c>\264\357\326\276\231e\355\275\363K\302>()\036\276\261\234\213=-\300\340\2742\361\\>V2]\276}G\256>\327\000\230=9\014\211>\332\007V>\'P\344<\326\237\230\275\250\014\233\276\306.\201\276d(\244\276\234W\213\276} )<\225\243\326>\276\264l>\226\336G<\343+\036>B\214_>\273\313*\276O\304\004?\004\207\345=\2104N\275\334\014\261\276\317H \276\273H\276\275\247r\274>\321\316\026\276\203u?>\360F\234>Xj\207\274\215\275\231\276\231.A>\3716\\>\234\265j=P%\332=\220\004\332=\223\006\234>\224&\010>\230\214-=;\022\306<6\334\271\274\332Cv\276\311d\250=\241*\362=P^\217\276u\366\033\275W\223\325>T\230\017\276\2744\372=\214\033\363\274cC|>\3121v\276r\274\231>\344\006\212=_!\203>\030\221\006>\342\270\027>\373\267\273\277yQF\275\306\317W\276\250\343\026\300\275\275\276\277\34115\277#\333\327?L\006\272?\224\006g>*\244\346?:\341\347\276\035:\025?d\316\366?^\n\271\275\362L\203\275\231FQ>\024\347\256?\037\266\207>\000\361\271?\310\324\340\277\226jB?\001\215-?2>,?J\033#\300\313D\230?\177L:\277\220\010\376>f}\250?\273_y?\247\207\235?\247/\205?/\257\007?/\375\'?a\023\272>\3779|>\014\305\206?\263\347$?F\367\006\300\200\277\370\277q\"\353?\251\231\336\277\003\031\007@ne\316\277\263\245!?\320\324\353\276r\350\204?+5\032>\333\340\346?\366\244J?\037\006\342\274\360k\221\277\003)\'\274\255\025\230\276\342t\274\277U\260\215\2778G\302\276\037\272\306?\002$\302?\325qE=\253\201\312?k\311\253\276\356-(?L6\315?*D\366=\325\033\227\276/\217n>\024\374M?>):>\254\350f?\330\353\210\277\225Y\324>\365;\336>\316\263[>|-\346\277\231\375\"?;&\255\276\304\374\223>X\320r?\275\214,?\236\271\225?\371C\001?\227\331\353>!\226\345>\225\206\235>\233$\211=\236->?r_\031? B\251\277\016\007\276\277\017X\333?\202\005\235\277M\364\234?\222/\271\277!\330\025?\373:\013\277\364\267o?\210\002\202=\233\204\233?\366\306\021?\360\257\236>\366\265\247=\373\260#\277M\210\212\276\376\265\023\300\313\211\242\2776\332\032?\361`\001@i\243\274\275\033X\357>\316\306\254?#8\211?\263=Y\277\334_\340?:3\033\276\252\325\371>W\221\243\277\'\225p\277\215\207\354=\327\360\000?.\240*\300Q$\273>O\204\210>E\230\241?\373|\335\277YfN?4\325\207\276\250{\203?-J\324?\264:h?)2\301>\373\313\257?\014\n\263?\225\274\313>d_\000?G\032\020\277\374\366\242\275\227\245d?U\246\354\277\326\3505=a=\355?\305\001\305\277v\317\234?p\223\353=\217\202\332>\301\246\325\2732\232\372>\316F0?\353\207\273?iqu?\264\206/\276\261\263\346\275\277%\267\276\366L\225\276Y\345\277\277\250\014\224\276@\203\353\276\024\014{?\206\256\">+\337\304;\\\277Z>\016wG=^r\350\276\236\3515?\310\021\306\276Rh\315\275\363\375{>\200M\204=\324\201\215>\250\256\211>\370\220\227\276\276a=?\353\230o>w\200E?\344=J\277\"%2?\254\001\200\276i\323\243>\200\307\t\276\310\305\310>N\2204\276;-\360>B\215\301>\245v\247\275^:}<\335\020\267>.\022/?W\025\353>2\034!\277\227{\210\277\035\240\034?B\352\254<\t\324D?`.\352>>}\243>\310\200#\277\"k\314>\312|\330\275\315l7>F6\376>\334\206\362=rK\356\276}\315y\276\352j\374\276OH\255\276\302\034;\277\000\305_\270k`\036?\326wv>\023\357\236\276\321\027\200>\004\r\247>M\343\260\274\313S\036?\265R\337>.\215\364\274LF\243\276l61\277\365\373\210\276N\242\215>\305L\314=\256Hi>8\204\337>\222x\002=\027\246\005\277\227\313\024?\274\376\210>\241\257\315\274\336\225\255>]/k\276\365\374\224>Ba\214=7C\360\276l\272j\274\032\302\n=,\304t\276\325i+=JK\033?p\021L\277Y.\206\276\252(m?\231\r&\2779}\212=`b3\276|\251\001?t2\223>\017\2313??se\275\210\271q? ~N?\246\210\030\276;1\330\276\202\"\017\277\261N\274\276\237\370\346\277\370A\217\277\010\235\002?\244\241\250?n\304s?\036\354\201>\307\365\207?p\204]?\321\370\264\276\220=\267?\232m\010\277sZp\276cp\360\276\002k\263=\233\243<\275\247\243N>M\273\277\277\217\203\231>)\376\257<)`g?/I\313\277\250\3059?R\203j\277\305\260J?\336\321O?W\246\243?\211\247.?j\3231?%\020.?\264\006z\275y\330\257>\014\347\035\277\343\031$?\037\224c?\377\360\212\277H\250o\277\247o\224?\222@\202\277\220h\035?\r\272\221\276\265\341\035?w\313>\277\n\256r>\310PW>\316c}?\237\221\210>\200\033\014=\032;\241\275\0337,\276;\347\266\276\355\337\313\276\250\303\271\276i\375\'\276\273Q\002?T!\212>\301\2139\276\\k%>\225Tl>tJm\2763\213\014?O\363g<W\347\211\275\245\346\267\276!6O\275\357y\314\275\336,\246>\235U\343\275\261\022m>\271\277\243>\232\305\020>\031`\365\276\244\000\230>\001\240%>\327\361\034>\364\250\037>\234\307\313=\331\'\212>;>\272>=Z\021\276&\005\350=\253\031\232\274=[+\276\313\234%>:\275\'>&3\272\276k\217~\275T\232\370>\000Dp\2761\363\246>XL\006\276\267uv>\026\223\274\275\316\247\306>\262x\311<\212\357\262>\333\'\231>i\177x=\323\006\230\276\377\030\272\276a9\271\276\352!<\277\0021\037\277\346\325\255\275c\217G?\361\236\236>\031E\'\276\333\314\326>w\020\237>^(\"\275\244\370p?\237\237\253<t\373\206\276\227o\342\276=~\243\276\304\264]\276\374\351*?\022\177\235\276b\234X>I\237\253>\312\223\273=6\272-\277\350 \306>UN\377>z\242\323<\304\343\237>\314\n\234>\036 \362>\230\024\273>,B\271\275l3\242>\333Q#\276\201\016\336\275xV\225\273q#\004?\316\276n\277\032c\226\275\362AN?\177S\251\276\224^\226>\326\370\030\276\r{\007?\3751/\276\263o\021?\231P3>\201\002\324>\333\355\206>\006x\326<\352\017;\276\267\216\205\276\336\320\205\276\340p\321\276w\020\261\276@6\262<aF\017?\262jC>\223\315\215<\303\314\243> ^\014>\244\257f\276\r\367\014?2=S=\020j\005=\000d\275\276W/\324\275\\\t\236\275\247{\263>j>\241\276\342\264<>\022\021\326>e\304\325=*\304\246\276\311\223T=Z\2162>\325\321S>\350\276x=\347\257}>\277\261\241>\212,y>\265~G>\343\301c>\031\274\231=i\234\207\276\202\272\330=\210\301->\230\204\257\276\207\311\007\275\334Z\n?\004\275\204\275\t\301\204>kY\217\2755\3017>\227\021E\276T\255\351>\210\314]=\035\tg>\211A\207>\272\002\200>H\336\207\276\255\226W\276U.\215\276\340\316M\277vEM\277\006\305\275\275KiZ?\315\335|>r\335\210\275\262A\267>3\006\352>\227\323\235\276\252q_?fR\205=\247\303\036\276@\363\005\277\"\273\311\276\010Z\270\276#-;?\264\027=\277\317\376\317=\037\323R>\234\214\203>37D\277X\273\353>\256\022\312>\207\325\346=5\233\327>ie\236>\201k1?\027\0141?\037@\305\274t\205\251>\021c\224>\323\274\251\2769\245E=N)\372>}Sb\277p\002\036>\255b\217?\0148\r\277\201\234\253>x6\254\274\262#\260>P!u\275\300\376\"?\224\t\231>\204\317:?\364v\225>0\263z\272+\"\300\276\270f\220\276`7\242\276\007\2660\276\203\266C\276\333\305)\275\'{\235>\216\275\227>d\313L\276\225\341\007>tm\240=\021\003\021\276RB\240>\337\367\374=\001\314\005\275\n\000\306\276\337\342_\276|\374R\276\266\351\321>\\a\367=<\016N>\343\367\225>6g\324=\340H\315\276\202f >\207@\022=\276=^<\326\025?>YL3=\177*\037=,\202\006>\033<S\275[\035\323\274^?\305\275Wy\211\276u\222+>\301\2170>\241\342\340\276\306q\256\276\001\236\335>\300\323\254\276\274H!<\324\301\351\275\3201`>\254y\200\276s\033\006?\227[0\276\026\261\221>\023\330x>\017>\224=I\000\274\275r\361B\276\253\350\206\276S\032\310\276\273\370\214\276>\317\016\275F\372\t?\236\3006>\234\035\362\274\316\241\312>\276\001\036>A\027\214\276 \003\006?\022\231\261=59\245;@|\252\276\350%\316;s\\\311\275\262\201\022?zv\365\2759oN>\264q\317>:\243\226=\335\334\271\276,\033\203>9\303\226>k\241\256<\342\200\213>\215\275\311=\231\372\365>\340\024\225>\321\243w\274\262ZV>\353i\304\275W\301\227\276N\206O>\371\032;>\322A\337\276\324\203!\274\241B\014?\\\243w\276_\321\237>\377\006j\276\343\301\241>{\234\227\275\234L\306>\223#\255=\200\311\210>\277#w>\221c\252<\203M\253\276\031\305\016\276\013\320G\276 9\341\276\326.\371\276}\372\n\275\215\037\027?\222)\210>\356\242\036\276SU\300>\340\327\007>\230\304N\272\204\304\314>\265\246\262=V\365H\276\242Q\332\276N\244\003\276\022\nz\275\246\264\244>1Z\322\276\343\347>>\306\026\261>\266W\246\272\246\205\035\277\360S^>\206\317\356=\260\232\013>\002D\323=|\325\216>w\353\362>\271\204\230>\037\034(=\n\313\372=\303k)\275=V\235\276\235`5>\327\310\266>\241\303\302\276\3372n\276\337\t#?\265\341\344\276\017\311\\>K\265\327\276)]\226>8\276\271\275IX\277>\236W\001>\307\304\341>|\242\215>\245\211\013\274\\r\372\275\363\241\216\2761\335\216\276\3241\263\276\271\260\264\276u%\320\275\203\2122?q\232\255>\021\330\265\275\340\331\355>\357\234\307=;\272\t\275z\301\036?\235<u=\230\375Q\276d\234\323\276;\274\n\276\213c\002\276\252\023\214>\267t\265\276\r\2135>`\307\221>\0334\">\271\006\n\277\257\327b>\343r\210>\356\224\177>\262\177\336==NZ>\022Y\352>\010\377\254>Mj\\=\265T\214>g2\266\274p\272P\2768Uz>\300\324\212>\370\265a\276d\'\252<\030\023=?\245\324\235\276\n\332E>g\352\251\276\334\255\331>2>i\276\212\254\344>W\3414>\000q\301>\266j\233>9\301\t=n-N\2762\232\203\276\270#\017\276-\312<\276\367p\230\276.z\224\275\224\027\351>v\221\260>\027\272/\276f\322\261>\001\3056\274lk4\275M:\273>\245\2732>\305;%\276s`\002\277\r\n+\275\26467\276\363\322\243>n\204\207\275\327\224g>\347\020j>):\307\275\327\010\334\276*H\033>E\355\007>\030\355\016>\216\371\253=5\226\021>Dj\365=\022}>>*D~\274`3\002\275Fs\230\275!\333X\2760\010\374=\372\031\031>\211\001\277\276;D\020\276=\226\231>X{t\276\223\225~>HsM\276\241\225\230>\006\000F\276K\304\225>\027\316\366=%d\305>\222\302\034>\212J]=!\260\005\277\002\374\030\277\r2\026\277\036/\247\277\231\315K\277]\3677\276\231\357\236?Vw5?\310\306*>\304\004Z?\215@\341>NXL\276\021\234\305?\211\335\004\275\025.&\276\235\010=\276F\323<\277$&\025\276\256\346\212?Y\257q\277\374\265\260>^c\212>\r;6?_P\276\277n\316\227?#\033T>8\273\234>\230=u?\3329\341>\334\271\364>\235#[?\310\0165\276\343C\272>u\257\310>\255\243\025\276\277\003b:\017\016\200?\205\212\341\277\211M6\277H\343\276?\3212\204\277\312\355H?\222\326\2109\321b??\350+\300\276A\347N?\347\320^>\375\216\201?\356\354\314>\345\351\014=\261\351n\276\312\316\264\276p\r\245\276[#2\277\252W\371\276\310q\314\275~\302\"?\365\322\227>\230\275\324=\361\313t>0\364\251>\010\002\027\276{\2010?u#{=DJ\255\275~\237|\276\270\314\202\276\034\355\217\276]\312\354>\3128\003\276\276|\027>\304\222\236>\226\275\307<g\177\013\277\007\000\275>\t\354\231>K9\230\275$d\331>o\232\021>\303\224\332>\370\004\260=\240\255\213==\370\273<xp\016\276`\214q\276_\033\027>\370@\317>a^-\2778!\t\276\014\2102?yf\242\276\250\373(>E\240\302\275\t+\307>_3R\276\0356\244>\247L&<rN\252>\305\337\205>}+s=\035P\177=&?\n\276\350\226\n\276\005\360\014\277\316\016:\276%\365\235\274\252\034\002?W\333U>8p\024>\357\340S>-n\253>\332a\331\276\376\352\032?\324\337\336\275*U\346=\362\236w\276\223\304\013\276\376\357\002\276\322X\365>&\311\226\276s8L>\361N\224>q\354\336={\023\300\276A\263\220>\016\212\374=\377\r\343=\370\273<>>\265\017>A\210\202>;\350\205>\331m\242=P\"\002>f\370\214=\314I<\276(9\224=\237J.>)\377\001\277\240\342\233\273^D\325>\251\250\336\275\271!\217>(\234Q>0pA>\264Q,\276\330\305>>W\205\312=Y\274\323=\372/\335=\032x\266=\225-\343\275w`8\276\022}\370\275;(\304\276\300\025O\276\220\2423<\2025\356>\331$0>v\226\353<\363\203->\030\227A>\316\202L\276Zk\003?\033\213I=\r\"\251=\024jj\276\216\001y;\025v\240\275\355a\255>\\[w\276Y\024O>(\025\240>4\003\257=\362K\237\276\217\322\022>\004{\231=\362h\214={\373\024=k\017k=\005\212\244>\263#P>\214\022)>\3300\324=\010V\243\275\375Y(\276BR\030>\275\014\215=\361\030i\276E\233\206\275\177\357\371>3\336f\275\364\350\277=\235Ly=z\021d>&\331\225\276\341\r\252>\234\315 =n\035G>8g9>\321c\345>vE\r\277\021{\230\276\347\342\035\277\302\314\223\277v\312\205\277\375\345$\276Tyf?\373\373\331=!\345\306<\216\302$>\207\244\375>\273\274\310\276,\357\242?n\300\275>D\004\005>\n\306\035\277\020\336/\277\341\201\351\276M\274\210?*.`\277\330\332]\275+\361\314>\306\276\007?\363\014=\277R\342\327>jS1?\037\342f>\025\351c?\227\237#\274\357\037\"?\343\310f?\0370I\276^[\374>\355\260\261>/\242\276\276\221\004R\276\326\227\240>b@\252\277\024\177\354>\3579\254?\336\235I\277\263\2609?\260\0234\276\356x\000?>!!\275/\021`?\336\202&>\265\252J?gK\345>\352O}\275?\244\t\277|y\223\276\026\342\343\276\220\001!\276\0248\367\276\246|&\276\237,\262>\300\332\270>\026\223\305\276\371\024{>\2418C>\371\177\231\275\212\027\323>\232\330\216>\265K\264\275\007c~\276)\222\t\277\314\0236\276\302\031\013?p\252\320<\345\026\264=\360\325\270>\316G\217=\231U\n\277\256\001\301>\326\237Y>\3321\272\275\304I\315>\357\275\352<h\037B>]\245P>\243\234\262\276c\245\212\274\343\236\357\275\002\034\265\276}4\273=\005\234\017?\330DY\277\275>\377\276:/[?\017\343\007\277]\240\264<\234\003o\275f1\332>\274\336\250\273\010\276J?c\026\027\276\020\332\'?\336:\354>Q(\233=\376C!\276\221t\376\275\220\013t\276\354u\364\276I\215\312\276\016q:\274\315\327\377>\3634\262=`-\253\275\305`\203>\343\025\245=\001\251=\276p_\352>Q\001r=\245\373J\275\274\366\300\2767}\006\275,\305\000\276\210\235\230>\037\244\177\276#V\306=\376(\022>\350n\371=\361\023\327\276\336.9>H\014\374<\234Oj>\251\n\n>\331\234\031>\027\305\244>\252\036&>\377\356\206=\2108\263=\240\217m\274\346\276\t\2765\254)>\232f\205>\203\'\265\276=\017\356;\253W\005?\344<\313\276\237\242]>\222\377O\276e\037\205>bbF\276\322\346\243>*\200\254=\370\327\243>\312b\001>!\271\200\275\002\341n\275\323T&\276\214\321\254\276\367i\244\276I\205\332\276\263\0244\276\215\325\354>\376\347t>8W\013\276\357\344\223>\266\3716>\010t\021\276\342z\337>[\347\213=\3606\343\275\032J\326\276\363$\212=\356\336<\275\216av>\004\373i\276\244\307A>\330\237\300>t\302\377\274\360C\346\276\340|\\>da,>\3404!=\351\262\031>53\215>\272B\275>\302\006\223>\034\355\310\275\232\364\014>}\020\375\274\216*~\276\005N;>h\231\t>!\236D\276\336c\264\275\300\'\355>y\316D\276t)\237>\246,\340\276\304\030\202>\020M\237\274\335\316\250>\211\303/=\312\373\300>\r\267\225>\342\303\003>\377:\370\275n\340\000\276\246\226\206\276\177\272\356\276\233\332\256\276#\2300\276ie\030?\313\242\272>\016*(\275B\t5>T\033\372=\347\021-\276b4\r?\024\306\032=\362\013\034\276\344\311\224\276l\247\230\275DC\242\275tp\337>\345\020\230\276\210\037\207>26\206>\302E\247\274\006\032\017\277 \207\213>\217\343y>U\031u>\311Iz>)\241\226>\337Z\305>\244i\256>\276q\367<\023\317\264=\036\017\246=\023\2675\276a\326~>\362\326:>LV\323\276c\322\'\276g\026\036?\217\007C\276>\324\264>ga\247\275\310\013\236>P\024\233\276h\245\311>\267\007\271<m\370\206>\361i%>\027\324\357=\301U\t\275)\273\202\276\006\006\261\276\002\340\003\277\3717\034\277`\232\200\276\211D5?\323z\356>\214\320===\235)??O\370=\007`s\276\270\2423?r\014.>\tXs=\034\235\025\277Vd\007=\203\230\t\275\313\236\010?\376\323\003\277\030\345\024>*t\253>}\350\340\275\245<C\277\032\r\236>\375\222l>bg\205\275\357\322\024?\236!\346>\310[\274>\270>#?\002H$>q\314`>jv4>\323;{\276\'\301\255=\022\r\355=\036v\005\277h\313e\275\014\357;?\033\240\n\277|\310\033?\215\223\356\276\361%\230>>E^\276G\261\013?\373\271\014>\\\212\n?D\025\210>\235\222\337=V\035\004\276\004\224\205\276y\030\276\276\001$\033\277Z/)\277\344\037\023\276\372\310Z?_+\006>]kM=\035\250\025?zt\243>[\350\017\275CxX?s\340\371=\302Z\276\2755\364\333\276\324\375\\<0\007\017\276\261K\346>r\002\023\277\355Y\323=\320P\306>S\177\207\275$\300 \277F\'\204>1\032\236>[W2=&|\277>\263z\021>\345\314!?Xt\256>\335\244}>-vc>\316\0204\271K}\233\276\215\255y<C\301B>\345R!\277\246$\026>S\355e?\r\264\343\276\331\304(?\333\335\335\276\005\241\271>\245<\362=\236\305\310>\300\200\221>+;\010?\372\300\247>I}s=\344\246\304\275t\362c\2766\027\223\276n\320\250\276\244\023\311\2766\326n=k{\024?\231\352\205>\302\214\023\2752J\250>\001\344;>_\017I\276\2273\013?=\213\357=\375<%\274w6\356\276\336h\005\276a\n\267\273k\265\257>\274|\312\276Y\373e=\274\031\263>\t\236c=\376G\321\276q\023H>V\213\032>\351\325\010><3\377=\267vL>\311&\253>@t\215>\034y{=)^\376=/.7=j\203\227\276\256\271\025>9(P>\340\260\303\276\'\213\212;\305i\020?\214\035\307\276\200=\214>\203\262\204\276\366h\215>\246\200\257\275Ot\247>\347\363\313<\325-\302>Z\241\201>8\003\265\273\206\'\373\275oC\207\276\204\253>\276\255C\224\276\341T\231\276\022\372)\276\242\260\251>\177$ =\306\027!\275\022\227\213>M\307C>\250P2\276\214\207\203>\320oE=\333Rz\2755)\236\276\2450\022>\374O\245\275_J\251=_\200\353\275\321\037T>$Jg>\267\207o\273+\306\242\276\331\260\030>\233}\235=\324R\343;\r\035)>x\373\370<\r}\201>\365\236@>\256\371\341<5\255\277=\253\337G\275\263Dc\276n\3115>:3\342<G\006\321\274\330/p=V\367g>Z\375\255\275\3464K>\022uf\276t0?>\354\307L\273\246\371\010>\353\3332>m@x>\032\241M>\354\302\241=\021\360\360\275\200v}\276\360A0\276h\016S\276\nxx\276.\006\234\275\326\343\350>f*\271=\277\313#\276\325O\035>\301M\205>\245\271Z\276\273\256\276>G\007\266=M9V\273tb\005\277&\341<\276\265\350$\276I\202\262>\366!#\276z\333\'>\261u\204>v\302m\275\232y\337\276\244p\316=\223\264h>}>\327\275_r\352<\373\361\244=\034\346p>\006\255\202>\323\342\277<\343@\317=\313\030l\276\022W\201\276\250\225;>G\177\026>\376\225\236\276\2702.>\024@\271>\302\356D\276{\351\344\273\204X\200\276\016\333\305>V\367\357\274\n\000\177>\300\314u\275\204J >\22525>\361_1\274 \345\202\276:\037-\276?,\215\276\365\001\213\276\262\035\305\276\251\244\021\276\221\201\346>\312\032\337=\210\t\304\275\020\356B>\346%\026>\036\361T\276l\360\251>\252\272->\333L\010\275\032\301\206\276n\002\t=\3021\306<\032\236\344>\235({\276\223fF>}\200\267>\350\266\352\274&K\250\276\272\316\032>9\215\204>L\250\317\273.\374\024>\252\305\205>\'\'\013?\370\265\277>\001#1=\335\376\271=\350\245\215\275\257E\235\2761\035=>9\315+>\304\272\336\276\367MO\275\360\361\024?C\036\246\275;\232\267>\272\210?\276\316\276~>rE\010\276\264\234\344>\203\356\026=\335\301\244>\357g\213>\227\241\320>\354\275 \277\316\316\346\276\363\336\003\277F\332\301\277\033\254v\277\376\0239\276\265\276\233?\0004\032?\304\231\327<g\332!?\231W)?G\237\216\276\333u\344?\205s\353=\231\254\300=.\347=\276%\333@\277\037Q\r\277\031v\263?E:\204\277 (\035>\225m\n?\356~\252>\270c\254\277d\205X?Qj\273>\271\254\321=Hd\215?M0w>\377\311=?u\332V?\243\'\370\275\323\032\264>U\245\254>\342\277O\276|B\335\275\276\275k?\325\234\010\300\221\332\177\276\251\267\262?\020xa\277\203PY?k\326\000\273\244<>?\350\204U>/\2067?*z%\275\327\031p?\356\252\325>\002}A\275\375k6\276\250&\246\276\232\332\221=\330\327\224\276\312]\034\276\354\270=\275\253\000\312>\304\327\005=\332\325\316\274/\306\301>\312\034\027\276\334\271\236>\024G\013?\211\253\242\275V\332\211\276\334\277\371\276pG\215\276Y1\207\276JY\204>\275\261^\276 F\364>\242\201\247=\333\013\322=qp$\277\256\362\227>\317\361\370=\210\032\352\275\307L]\276\205\302Z=/\352\t\2757l\034>\016\n\246<\020F\000=W{-\276\375n\215<\260\033\372=t\220\332>p\340\177\275\261\220\314\275\341\203\324>1N\213\276\352\220R\276\325\217^\276O\273\212>\347E\340\275\376\177\320>\377\306J>\333[\324>\005\0026>\275\205\203\2748\002\t\275\010\025\016\276\003`\016\276F\025\311\276K\'$\276\303\306\202\275p\211\000?toh>\024\221\215=\224\304\230>0\250:>\260\375\217\276\203\263\026?\017X\343<8)\036>\346\217\266\276A\206 \276\271\021\305\275\306\255\375>N\273\225\276\311? >\277\231\330>\253\000\301<\004a\255\276G\242$>.N\352=f\213\234=\005\240\017>\025\016%>\370\273\261>\014\013C>\034-\021>v\332w>0\265\004<\266hr\276\320\375\206=[`@>\251S\244\276[\343\250\274\266\274\002?\226-\033\275B\024\374=h\330\016=\274\223l>d\221$\276be\254>\240\314\232=mx\231=n\207\252=k\370,>\275\333\237\277\266\2172=(\200m\276|\320\267\277|\325w\277\2029\346\276\016\231\263?\213\303\262?\306x_>\225\203\316?\214\332\342\276W!\036?\335\373\311?\203\2524=\3715@\276c\0326>\314\036\214?3\024\221>\200\220\201?\226Z\237\277\204J\004?6\332\030?\330\211\222>\222\025\356\277F\234B?XR\324\276\206\004\257>\227lv?\005\300\037?(J\241?Zf+?\346\250\236>\036\303\365>\315\325\273>u\216G\275\355\005a?\367c\243>\232\177\242\277\026\022\264\277+V\276?\362@\255\277\331\246\261?h\020\312\277\021\203\350>V\350\007\277\213]]?\253\360\263=<I\227?V1\321>\234\037\025?\236\217I\277\277\005G\2763\247\020\277\336\202\236\277\261\317\241\277\206\270!\276\225%}?\203\344\035>#bh=\362\373\226\276\255D\351>f\232C=\205\265\306?6\217\252>_x\344=T\261\\\277\340\260w\277\261\2369\277\317\266\300?\235\221N\277\006\252\010=t\223\354>\370\204\030?>_d\277/%\024?\304\273\214?\221\007\314\276\330W\246?\006\020\202\276?\004\023?\275\2665?\234\235\237\276*/\023?\000\212\205\2754\020\243\276\210\343\254\276d*2?\340P\277\277\003\372\271>j\271\366?\032\3512\277\361\213\376>\313))\276\325\256\025?W^\241>\270\257\212?\225\243\003\275o\311n?OB\r?\371\375\234=N\246\314\275Mo\366\274\373\221g=\026p\376\276\336)\227\276ZQ\r\276\244\'\t?\250L\331=/\024\331\275\264,\302>l\242\222\275\031\311_=P\016\t?\202fp=E\210[</\003\234\276!\0224=P4\233\276y\346\203>\351\025=\2766t\253>g\3407>\202?\002>+\373\357\276\034\311;>y\037\270\274\023\274\016=e%x\275\300\323\367\275L\260\001>:\374s=\\\261\014=\032\220\001>\335\374\223\273\210\306\'=\211\0367>a\316\254>\200\254H\276\213\006F\276z\316\004?\233e\025\276Q\002\321\2746\262\020\276\201u\035>\372\222\362\274#x\005?\223\330\255=\221G\353>\021\023\264>e\342\206\276\221\2663\277\225{\211\276\257\n5\277\325\233f\277\270\304\244\276n\351\002\277\246Q\035?8\\\t?6\224\224\276b\254\355\274\215Mx\274\001\247\214={\n5?\347:^>k\356\261\276\351\331\003\276[\377\222\277\364:\256\276\275t\177?d\367\251=8\342\006>\250\265%>~\014d?T\201\220\277\351-S?\353W\360>\006w\000\276\010%\035?\0303\002\275\274h2\276\357\245\024?\372*\201\276\366\317I=j=\013\275oK\245\276T\250\304>W\317\210?\022\350y\277\354\242\217\277\222f\332?\303\253\026\277\375\206\267>\272\221\032>\312+>?\311}\351\276\327\030\273?5\340\330\275|`\003?\027\r\t?le\372\273F$9\276\236z\000\276\264\320\237\275\206\217\\\276\240.z\276\317eZ\2766\370\000?Z\"P=B\252N\276?\201\376>\274c;<{\335\271>\265\205\n?/Xx=oy\362\276\r\315\265\2762\213\223\276^\005l\276\330I\342=\277\017;\2757\236\233>\356h\257=\212:\341=\311\245\026\277\226\200\306>\236\242\260>\033\310\221\275YX]\275\021E\032\276\007\353\210>\217\007\347=\304\234k\276\207\345\200>\315\nR\276\245,\205=\242F/<zs\375>L6T\275\374p<\276\202\016,?w\032\223\27620C\276l0\251\276\242\320\273>*\312E=\356&\036?\367\300\211>\225)\013?\360\306\317>\256\251\261=xh\242\276A/I\276\t\306\304\276P^\317\276\215\305\312\276\241\300J\276|\302\351>\345\205\330>\003\225i=\227\233\204>\010\302H>\250i\234\276\177\255 ?{\307\'<o<x\275\2469\220\276\226yx\275j\001-\275\3379\035?\234f\244\276\0174d>\311)\347>.\005W\275\352\202\004\277\031s\236>\250~\223>\250X\241\273~\032\312>\2557\343>\013\370\353>`u\022?>\241\316\274\342\032\013>\262\2010>\356\324\275\276Y)p>\"tG>\023\232\024\277\346\313#=\235\261\021?\214\353\207\2768w\356>p\035\036\276\210V\223>\342;*\276\341\237\210>H\300\215:\346\210b>\030\354`<\277\341\325\275\305U:=C\355B\276\327M\313\275\324t\265\275\213\332[\276\377_k=\331<\244>B#\222\273\214\251@\275{3]>Aa\205>\017&\255\276\235\223F>\306B\275=\'_p=cQ\274\276#\300\223=)\330;\275\005\317\">j\320\036=\265\366\234>x\333\227>\336It\276U\032\307\275M\306\220\275E\256\017>\362 T\274\254\314\222\275\264\037s>\357\004Y>\305O\210=\235O\035>\205\266s=\305\303)\276\326\340\224\276P\327\320=\255\313\020><\0038=p\017\026>\231\2655>y\334\007>WW\366=8LO\276r\224\256>\375\006\214\275\017\272\367=\034T\311;\017\246U=z\345_>\375\332\307\274F\272o\275\376\323O\276\202??\276\307\207\022=\247n\365\275}\177\026\275p\321\257>$\345H>\314\266=\276.\027\250>\332c\302=I\363=\276FSL>\351\005\r> \215\322\275\271\353\303\276<{\344\274\221\331\205\275\252Xg>Q\371t=\231*\204>,B\250>I\230i\276\213\222\210\276\363\032\206<*X\373=\252\343\222=\225Lu\274\273\330\274=th\'>\3423\005>R\371H=\037\331\314=b\305\032\275\300\377K\276u[\004>\333>\212=\306\367N\275#r\326<m\2762>\017X-\276^\2237=Aq\236\276\277>\222>ovX\275\004\\&>!\246\255\274?p\003>\221\305\322=AmM<\3612\r\276V\347\205\276\212\001\233\276\020n\201\276-\266\213\276\260l\240\274\300\303\345>\006\241z>\335\317(\276\001\005W>\202\362\033>\210\354x\276\004\222\372>u\376\264=\356o\266\274rV\322\276O\327\017=^\245\300<\3422\311>~\336$\276\026\016j>\010\226\301>\365\003T=\317\220\275\276\362U\032>\037\234\016>M\360\007>\370_\350<.\275(>Rv\245>\370\333u>\342|\277\275\201u >\356\001q\275\347\365\206\276[Hc>\033\274\312=\370\241\221\276\036@\305\275\242\235\331>\201\215*\276\3354\035>~\322C\276\347\251\207>\352ML\276!D\321>\342|k\275\001\306\222>/\324F>\362o3<\274{\025\276\205Q\250\276[\325\246\276\256ek\276`\303\363\276@\027\'\275,<\002?y\254e>\006\t\302\275\356\225\237>\r\351\223>\305\240\025\276\267\001\357>\177\362\200:\202\364\364\275o@\361\276r;\215\276|61\276\333\374\321>\326\301\260\276N\266\256=\245/\261>i(\241\275\332}\005\277\000\212%>\200F\263>\333\267\300<\005@\002>\206r\206>\033\277\300>z\260\323>\224^\275\274|\007H>\251p\224=\244\315\274\276\224\316\224<%5\222>F\361\025\277\226FH>\223D\017?\325\005\224\276\304p\034>\211\340s\276z\250\226>\273\250\023\276S\207\307>\336\367\001>\220w\272>\rrk>\304\0343=\306\311s\276[\340\221\275\216\035R\276\224\337\355\2752&\221\276\275\261\237\275\005V\301>\257\354x>:\363\336\275\177\251w>U{U>x\347\333\275\307\210\266>\3115\224=\242\203j\275\235L\231\276\252\340\255\275\017\267\250\275cfb>\261\307L\276\022\244\362=93[>5\2602=\217G\225\276\024\221\226=\214\340\333=/q\323=\253\217\310={\210\257=\266?\250>\010\230\226>c8[\275d\217\373=\226\244\321={\200\221\276z\356\014=/\224\262=k\010\267\276\2575\020\275\203\014\314>$\2045\276T\213j>30\270\275\372\252C>\221\014v\275\2662\253>\240x\245=U\221;>\317#\007>u\375O\275\017\255?\275\007t\330\276}\025\205\276\217WR\276\314\330\220\276\220\021\343\272v\334\376>\263\036f=\256u\027\276Ug\271>U\346n>+\307t\276\204O\303>)\205\210>\234\266\277\274\336\\\371\2769,\255<\232\321\311<\247\260\225>\273\271\232\274z\325\223>\331\246\246>\321\023=\275\200\244\\\276$r\010>)\034H>\354\204\202=\205\327a<\243a\321=\030\207_>\232B\365=&\007v=\2061O>\210\265\032\276cs2\276\376\025\237=\343A_\273,l\371\275l2R\275\027c\232>\272\327\321<\004g+>I\306O\276\250\206\302>)\341E\276\231\353\321>\375G\236=-\231\225>!w\254>\244\331\273<R#\217\276\205\021\225\275y;R\276%6z\275\026\225\244\276\243Y\232=\225\027\356>\250\207\236>\200\007\227\276\321\023y>P$\024>\033\006b\274\002\350\263>q2\365=&\217[\276\271\000\363\276\345\'\016\276\363\241c\276z\330\304>\317\357[=\203\331k>\026:\226>*!\344\275\341 \343\276:\365v>\371f[>\314~:=\000\302A\275+\203;>!\253\327>\372\002\204>\240?]\276[%\221=\322(\330\275\340\263\222\276w\212\327=\037\210\217>\267\247\251\276\010\321\304\275\033\302\374>\006\332s\276k\3524>\027\365\272\276Qj\314>\202\335\331\271\254\273\263>AZ\230=\020\240\302>\234]=>\336\005\243\275\201\320z\275\237\036&\276+\272\010\276\"\353\240\276\n\303\025\276\274\225\202\275iW\002?g\343%>C\177\260\274~}\254>9BO=\223E#\276\024\346\354>\010\025\377=\275\201\227=\320\020f\276\"(t<\005O\306<\307P\246>\2628\020\2761X\212>Xh\260>i\223(=v.J\276o\302-=T.\221=\305\377\361=o7\311<\037N\361<B\036\214>\262\314<=\250Le>S\353*>&]\261\275\034?\326\275Nh >c\255\336=`&\375\275\353\214\301\275l]\306>\257\016\021\275\016\244J>L$\032\276h\236|>\305_\217\275\000\350\213>y\323\317<\321\217\367=\356\267J>N\373C>N\035Q\277D\334\245\276\200\204\010\277F*\271\277\373zW\277\002\374z\276\331\351\213?;W\'?\031\3605<\246~\371>\017\274\324>\336g\016\276\021/\272?*=\254\275N\351\016\276\206q\341\274\201%\211\275\374\302P\276U(\233?\326\2301\277\267L\305>\263\311\327>\022+8?\2107\225\277\t\344v?\005/\307=\267\3054=\261\005r?\333\310\320>\251\371=?\\\355[?\305\276\261=x)\034=_^\365=\352\337\244\276\260\324\223>\216O]?\304\025\324\277\001\274X\277\217\345\267?\0176L\277\234|\217?\276+\244<\177e\000?\257\037\024\276>\372g?iif=R\262f?X=\327>&a\344=I\207\024\276Q\345P\2760\220\236\276\023\000\316\276U\234\276\276\004h\231:a\247\331>W2\n>\005\263r\275\001\017x<\256\007\306>#>\215\276\231\260\003?\334\250\007>\323\243\230=\355\267\213\276R\3728\2767\312\224\275_$\304>\277V,\276\333,+>\r\277\220>\335\020\257=\371S\253\276\375\240\217>\276s\007>\314\210;=\243\237m>\332@\004;Q\031\243>\265\254R>\325E\032\276\007\323\210=@\211/\275Pf2\276\220\250I\272\233\273\'>\367\304\327\276\374\007\327\275\241\021\000?\032oS\276\376\177A>\350T\364<\3564\240>\210\361\364\275p\225\275>KUR\2742L\275>0_\230>\245\377\266\275\'\005x=5\203C\276}\250f\276\242\365\000\277\232hd\276\307\\}\275\177\217\355>L\t\211=\275\234\324;sp\315=\357eo>Cd\224\276!1\310>\300\001\017\276,nf\275\\\2112\276\327`\236\275\263\337E=\037\032i>U\026+\276\257\327\177>\017\341h>W\354\016>3\370q\276\234SV>\221EZ>;\306\266=\037\270E<\201\375}=,\322\004>\360\3527>6\307\000>dh\376=\215\200\216\275\017\275I\275 \301\033>\233\334\213>>\255\222\276\342\205\003\276\200\352\241>e\215\020>\020\221\033>x3\023>O\305\t>\211\351\205\276^\370\222>\300[\242=\317\312\027\275U\355\032>kl\225>M\331\255\276\363\206\203\275\341\226\327\276\356\303\203\277(aA\277c?c\276\250\260r?\n\357\222>\312\004\304>\006\200\243>\017/\231\274O\315\356\274X]\274?\n^*>\260\222\256>\201\035;\277Fg\017\277\027\365\264\276F `?!\010(\277$\216$>\304gX?\326*\347>\000 L\277\335\302Q>\232a\036?\220\226\266>m\217\016?\272\341\375\274\301k\347>z_\372>~\220\024>\232/\346>\272\036d>\206V\234\276\350\212\376=\263\257\177>\253oY\277n?\033?\303\303\236?\365\273\r\277@\204H?\264]\300\276\347\253\246>\032\237\006>\023\2518?\264\267\220>\306\376\030?jM\022?l?>=\276\350%\276\330\3662\276x\\]\276)\311z\2761\352g\276\254\257\245\275\304y\327>\001\n\207>\331\205I\276\212;\r>\263\212>>\356\305\326<\r\330\334>}\335D>\303\324n\275\303\334S\276@\352N\2765\340\017\276\301\031\202>9\366}=\375\223W>\315\345E>\234\260/\275*\304\363\276\346\252W>\210\256\000>F\344\377:\271R\006>\316\361\347\275{\325>>\2708\023=\324\036\350\275\325\243@=$o\243\275\322G\220\275D\310\350=\276\221>>\365r\241\276\032;\024\276\3110\316>\214\241\212\2765e\227\275\366,`\2761$\261>\305\213w\275\020\204\256>\313M\350\275\210\245\220>NE\227>\236\230\236\2745\356E\275A3:\276\000Z\356\275\266\271\'\2760\304\344\2759\227j\275\250\305\304>\322\2641>\217\0020\276\311\351\231>\035~\313=\333\007G\276\337\266\204>\021`\022>\222\211Z\274\350\305\237\276\256\242\360= \237\273\275S\220\227>\325\366\006=*\014m>\367\033\200>]\007#\276\252\366I\276\316\\\350<\243\377C=\257\243l=\232\3253\275;\302\314=`S\221>fsQ=[\263\202;\330\354\305=\313g\307\275\356\220\001\276\037f\">\342\306e=q5\327\275!\260\306\275\261\244Z>\021\311\006=r\233\262=\360\206^\276\250\277\206>\237\215\024\276\217\r\204>%\031P\275\235i\355=\214H\r>\377\014E<\236\261\204\276\246j\242\276\3704.\276d\205z\2760\232\200\276\253\373r\275\343c\001?\253\336v=R\341\274\275\303\227\355>\266\007\365=Cl\336\275&\032\255>\003H\035>\376\344;\275j\301\330\276b0_\274\237\363\272\275\214!\206>\366\3621\276\207\305\n>\331\234\302>\255^\374\275\201\276\261\276w\312\212\273\037s=>00D\275\005\237\226\272;dO=\325s\244>\274^\010>\326\344$>\223\374\017>\260A1\276\275\251\226\276\372\212\002>\267g;>\372\374\200\276\'\334g\274\357\232\311>\304\231\024\276P\307i=\016u\235\276\230\"\231>\033\t\263\275\003\201\325>\203\225\275=\263\346g>\216\200\244>o\234\317=\304\377\315\275Z[\242\275\227\265#\276\344\360\215\276\324\366j\276\360.\366\275r\243\256>;\354\277=\265\247\005\276\217\216$>\301r\351=v\333}\276\360\023\266>\030\021\377=\254P\312=\353;\312\276\252\372\223=2 \250\275!\246\271>\'c\235\275\333\0165>;T\253>\302\237\2519\353q\240\276p\277\006>\203\310\344=0L =\217\006V=C\267\267<\254\330m>N:F>\362^\267\275z\233\235=\177\273\276\275+v[\276M\264m>\272\312\'<\3450\203\276\2306#\275P_\217>p\277\320\275\321\217b>,